{"version":"1.0","truncation":{"max_length":512,"strategy":"LongestFirst","stride":0},"padding":null,"added_tokens":[{"id":0,"special":true,"content":"[PAD]","single_word":false,"lstrip":false,"rstrip":false,"normalized":false},{"id":100,"special":true,"content":"[UNK]","single_word":false,"lstrip":false,"rstrip":false,"normalized":false},{"id":101,"special":true,"content":"[CLS]","single_word":false,"lstrip":false,"rstrip":false,"normalized":false},{"id":102,"special":true,"content":"[SEP]","single_word":false,"lstrip":false,"rstrip":false,"normalized":false},{"id":103,"special":true,"content":"[MASK]","single_word":false,"lstrip":false,"rstrip":false,"normalized":false}],"normalizer":{"type":"BertNormalizer","clean_text":true,"handle_chinese_chars":true,"strip_accents":null,"lowercase":true},"pre_tokenizer":{"type":"BertPreTokenizer"},"post_processor":{"type":"TemplateProcessing","single":[{"SpecialToken":{"id":"[CLS]","type_id":0}},{"Sequence":{"id":"A","type_id":0}},{"SpecialToken":{"id":"[SEP]","type_id":0}}],"pair":[{"SpecialToken":{"id":"[CLS]","type_id":0}},{"Sequence":{"id":"A","type_id":0}},{"SpecialToken":{"id":"[SEP]","type_id":0}},{"Sequence":{"id":"B","type_id":1}},{"SpecialToken":{"id":"[SEP]","type_id":1}}],"special_tokens":{"[CLS]":{"id":"[CLS]","ids":[101],"tokens":["[CLS]"]},"[SEP]":{"id":"[SEP]","ids":[102],"tokens":["[SEP]"]}}},"decoder":{"type":"WordPiece","prefix":"##","cleanup":true},"model":{"type":"WordPiece","unk_token":"[UNK]","continuing_subword_prefix":"##","max_input_chars_per_word":100,"vocab":{"[PAD]":0,"[unused1]":1,"[unused2]":2,"[unused3]":3,"[unused4]":4,"[unused5]":5,"[unused6]":6,"[unused7]":7,"[unused8]":8,"[unused9]":9,"[unused10]":10,"[unused11]":11,"[unused12]":12,"[unused13]":13,"[unused14]":14,"[unused15]":15,"[unused16]":16,"[unused17]":17,"[unused18]":18,"[unused19]":19,"[unused20]":20,"[unused21]":21,"[unused22]":22,"[unused23]":23,"[unused24]":24,"[unused25]":25,"[unused26]":26,"[unused27]":27,"[unused28]":28,"[unused29]":29,"[unused30]":30,"[unused31]":31,"[unused32]":32,"[unused33]":33,"[unused34]":34,"[unused35]":35,"[unused36]":36,"[unused37]":37,"[unused38]":38,"[unused39]":39,"[unused40]":40,"[unused41]":41,"[unused42]":42,"[unused43]":43,"[unused44]":44,"[unused45]":45,"[unused46]":46,"[unused47]":47,"[unused48]":48,"[unused49]":49,"[unused50]":50,"[unused51]":51,"[unused52]":52,"[unused53]":53,"[unused54]":54,"[unused55]":55,"[unused56]":56,"[unused57]":57,"[unused58]":58,"[unused59]":59,"[unused60]":60,"[unused61]":61,"[unused62]":62,"[unused63]":63,"[unused64]":64,"[unused65]":65,"[unused66]":66,"[unused67]":67,"[unused68]":68,"[unused69]":69,"[unused70]":70,"[unused71]":71,"[unused72]":72,"[unused73]":73,"[unused74]":74,"[unused75]":75,"[unused76]":76,"[unused77]":77,"[unused78]":78,"[unused79]":79,"[unused80]":80,"[unused81]":81,"[unused82]":82,"[unused83]":83,"[unused84]":84,"[unused85]":85,"[unused86]":86,"[unused87]":87,"[unused88]":88,"[unused89]":89,"[unused90]":90,"[unused91]":91,"[unused92]":92,"[unused93]":93,"[unused94]":94,"[unused95]":95,"[unused96]":96,"[unused97]":97,"[unused98]":98,"[unused99]":99,"[UNK]":100,"[CLS]":101,"[SEP]":102,"[MASK]":103,"t":104,"a":105,"##in":106,"##he":107,"##re":108,"##on":109,"##ti":110,"the":111,"##er":112,"s":113,"o":114,"##en":115,"c":116,"##ed":117,"##al":118,"p":119,"##es":120,"##or":121,"##at":122,"##is":123,"in":124,"of":125,"##nd":126,"w":127,"##tion":128,"f":129,"d":130,"##it":131,"##an":132,"##ro":133,"m":134,"b":135,"and":136,"##ar":137,"##ing":138,"##ic":139,"##as":140,"##le":141,"e":142,"(":143,"re":144,"##ent":145,"to":146,"##ation":147,"T":148,"##el":149,"##ec":150,"##us":151,"n":152,"th":153,"##om":154,"1":155,"##ac":156,"##et":157,"##ul":158,"##ol":159,"h":160,"l":161,"##im":162,"is":163,"##ur":164,"A":165,"2":166,"##ig":167,"##os":168,"S":169,"##ve":170,"##ly":171,"##id":172,"for":173,"C":174,"g":175,"##ce":176,"con":177,"##il":178,"I":179,"##ith":180,"##ut":181,"##ow":182,"##ot":183,"pro":184,"##tr":185,"The":186,"v":187,"with":188,"##am":189,"##ter":190,"##ere":191,"P":192,"as":193,"M":194,"##od":195,"##res":196,"al":197,"an":198,"##un":199,"##uc":200,"on":201,"that":202,"be":203,"##if":204,"##um":205,"ex":206,"##em":207,"st":208,"##ts":209,"##ab":210,".":211,"##tic":212,"F":213,"##ver":214,"##ity":215,"##qu":216,"r":217,"##st":218,"##ag":219,"##ir":220,"D":221,"##ate":222,"##ad":223,"by":224,"##si":225,"R":226,"com":227,"##oc":228,"##ain":229,"B":230,"are":231,"##ure":232,"H":233,"##).":234,"##ated":235,"##ment":236,"##her":237,"##ati":238,"##00":239,"res":240,"E":241,"##pp":242,"N":243,"us":244,"3":245,"##rom":246,"##..":247,"##op":248,"de":249,"##ay":250,"or":251,"0":252,"was":253,"ac":254,"##og":255,"##ud":256,"L":257,"##se":258,"##ted":259,"##ess":260,"##ap":261,"at":262,"In":263,"##ri":264,"W":265,"##ell":266,"##ore":267,"[":268,"comp":269,"wh":270,"##ch":271,"were":272,"##und":273,"G":274,"su":275,"##ant":276,"from":277,"##ers":278,"##th":279,"##ff":280,"=":281,"##ine":282,"##iz":283,"##orm":284,"##pl":285,"ch":286,"im":287,"##ical":288,"we":289,"##vel":290,"sh":291,"dis":292,"se":293,"4":294,"##per":295,"tr":296,"##pec":297,"##ations":298,"##and":299,"##igh":300,"##ies":301,"##),":302,"O":303,"##ich":304,"it":305,"this":306,"##ase":307,"##ents":308,"##ib":309,"en":310,"##iv":311,"5":312,"le":313,"##ge":314,"##te":315,"can":316,"##ign":317,"##duc":318,"not":319,"##sion":320,"inc":321,"ad":322,"ne":323,"k":324,"##ition":325,"##able":326,"per":327,"J":328,"##ence":329,"##up":330,"##form":331,"##ion":332,"par":333,"##ous":334,"##ans":335,"co":336,"##ave":337,"##01":338,"##est":339,"##red":340,"##eren":341,"##iff":342,"0.":343,"sy":344,"which":345,"##ance":346,"app":347,"##ect":348,"mod":349,"##ther":350,"##ach":351,"##ial":352,"##age":353,"##tive":354,"U":355,"##lec":356,"##.,":357,"Th":358,"K":359,"##ie":360,"##ug":361,"##ys":362,"##ort":363,"##ak":364,"cont":365,"whe":366,"##act":367,"he":368,"##end":369,"cons":370,"stud":371,"##ip":372,"##....":373,"diff":374,"have":375,"##etw":376,"cl":377,"ob":378,"##ary":379,"V":380,"200":381,"6":382,"19":383,"##ill":384,"##low":385,"et":386,"##ue":387,"##ific":388,"gen":389,"##ari":390,"##ist":391,"##all":392,"##ard":393,"##tions":394,"ab":395,"int":396,"##ally":397,"##our":398,"##ep":399,"##ors":400,"ass":401,"##olog":402,"un":403,"imp":404,"##yp":405,"cell":406,"inter":407,"ind":408,"##ear":409,"(1":410,"y":411,"pre":412,"##tiv":413,"##ost":414,"show":415,"##tim":416,"##ren":417,"me":418,"eff":419,"pl":420,"##stem":421,"met":422,"##ased":423,"##ata":424,"##pres":425,"differen":426,"##ong":427,"##ork":428,"str":429,",":430,"sc":431,"di":432,"##ond":433,"##enti":434,"##ber":435,"resul":436,"##ia":437,"##so":438,"sign":439,"##erm":440,"has":441,"##enc":442,"##ord":443,"sub":444,"##uch":445,"des":446,"ev":447,"##ph":448,"##uld":449,"##ide":450,"##een":451,"7":452,"i":453,"gro":454,"##ang":455,"##ates":456,"##ub":457,"##ome":458,"##erv":459,"##cess":460,"##ight":461,"##ative":462,"##ular":463,"##0.":464,"sp":465,"pres":466,"This":467,"##etween":468,"##ons":469,"##av":470,"##ose":471,"##ass":472,"between":473,"##ast":474,"tim":475,"model":476,"rel":477,"##ple":478,"+":479,"##ugh":480,"trans":481,"##unc":482,"system":483,"all":484,"qu":485,"##ech":486,"##ind":487,"##ory":488,"(2":489,"det":490,"rec":491,"anal":492,"##rol":493,"spec":494,"##].":495,"##wo":496,"##ility":497,"also":498,"We":499,"8":500,"data":501,"##ens":502,"##iti":503,"201":504,"##ution":505,"##ound":506,"ph":507,"ar":508,"##ual":509,"used":510,"reg":511,"##ble":512,"sam":513,"pati":514,"than":515,"val":516,"pos":517,"##ied":518,"ro":519,"9":520,"other":521,"##out":522,"sim":523,"##tain":524,"using":525,"##ater":526,"##dition":527,"und":528,"##ection":529,"these":530,"##ace":531,"two":532,"##pt":533,"##lic":534,"cor":535,"##ree":536,"no":537,"been":538,"j":539,"more":540,"##are":541,"##ack":542,"##.1":543,"vari":544,"−":545,"##aus":546,"one":547,"incre":548,"##ail":549,"##gr":550,")":551,"time":552,"study":553,"##ely":554,"##ating":555,"##hod":556,"their":557,"##ces":558,"num":559,"##pos":560,"Fig":561,"##oth":562,"10":563,"man":564,"##ting":565,"pr":566,"inf":567,"am":568,"func":569,"##cri":570,"fol":571,"##ten":572,"##ures":573,"out":574,"each":575,"form":576,"##one":577,"-":578,"may":579,"##rec":580,"such":581,"##trib":582,"##1,":583,"cells":584,"##lud":585,"##por":586,"##ite":587,"patients":588,"##.2":589,"##ni":590,"##ulation":591,"dec":592,"where":593,"appro":594,"##hen":595,"but":596,"##ever":597,"##ob":598,"gener":599,"##ath":600,"sur":601,"acc":602,"##ile":603,"##ice":604,"##ould":605,"over":606,"col":607,"##hem":608,"follow":609,"##ysis":610,"##........":611,"##oin":612,"##ments":613,"group":614,"##oci":615,"inv":616,"199":617,"##ik":618,"there":619,"high":620,"ag":621,"##rap":622,"##ture":623,"##tical":624,"##ros":625,"method":626,"level":627,"results":628,"Al":629,"tre":630,"x":631,"##fter":632,"##ues":633,"set":634,"##tern":635,"under":636,"##les":637,"##velop":638,"perform":639,"##ases":640,"[1":641,"em":642,"##ects":643,"prov":644,"only":645,"##vely":646,"##ne":647,"##ization":648,"use":649,"control":650,"##ized":651,"meas":652,"process":653,"do":654,"##ood":655,"low":656,"signific":657,"its":658,"different":659,"##ax":660,"##ined":661,"##ms":662,"##yl":663,"##-1":664,"ver":665,"conc":666,"##als":667,"def":668,"so":669,"##ature":670,"1.":671,"exper":672,"activ":673,"##arg":674,"sol":675,"##entr":676,"##ability":677,"##ology":678,"##NA":679,"will":680,"number":681,"u":682,"comm":683,"##ici":684,"##vers":685,"function":686,"es":687,"An":688,"fe":689,"our":690,"##hed":691,"For":692,"##uring":693,"mo":694,"##formation":695,"partic":696,"fact":697,"develop":698,"into":699,"significant":700,"op":701,"##owever":702,"##ark":703,"##ym":704,"##ust":705,"##irst":706,"obs":707,"##der":708,"##now":709,"##ix":710,"both":711,"Y":712,"##vi":713,"z":714,"comple":715,"when":716,"##art":717,"supp":718,"equ":719,"resp":720,"##ra":721,"##ange":722,"includ":723,"##lu":724,"present":725,"##anc":726,"exam":727,"expres":728,"##tein":729,"##rent":730,"analysis":731,"##2,":732,"bl":733,"St":734,"As":735,"if":736,"Pro":737,"##ered":738,"##fore":739,"min":740,"##ex":741,"##duced":742,"work":743,"pol":744,"##acter":745,"It":746,"##ung":747,"##ency":748,"typ":749,"non":750,"##ise":751,"X":752,"##hes":753,"“":754,"##inal":755,"some":756,"##ational":757,"fr":758,"##ared":759,"##erg":760,"##put":761,"##action":762,"##ved":763,"sec":764,"##0,":765,"Z":766,"id":767,"after":768,"##ays":769,"measure":770,"ins":771,"requ":772,"##ause":773,"##tit":774,"##ress":775,"sm":776,"12":777,"loc":778,"##duction":779,"bec":780,"disc":781,"observ":782,"##ox":783,"##ric":784,"##ize":785,"Ch":786,"##ann":787,"cur":788,"##ants":789,"##gor":790,"##rough":791,"##ult":792,"##iel":793,"##cc":794,"##ene":795,"##ild":796,"then":797,"##ven":798,"##atic":799,"##edi":800,"##til":801,"##yn":802,"first":803,"consid":804,"they":805,"##br":806,"##old":807,"##iew":808,"##.3":809,"##ks":810,"ref":811,"##ities":812,"up":813,"##its":814,"##ci":815,"##rel":816,"most":817,"descri":818,"##.5":819,"mul":820,"##truc":821,"##ected":822,"##entif":823,"well":824,"protein":825,"struc":826,"##amet":827,"##ption":828,"bi":829,"shown":830,"rem":831,"condition":832,"##ality":833,"##ft":834,"##ov":835,"##Fig":836,"##ough":837,"##earch":838,"##ages":839,"associ":840,"gr":841,"##tal":842,"##ilar":843,"##led":844,"##ield":845,"mat":846,"obtain":847,"##1)":848,"aut":849,"##ane":850,"##ok":851,"##gen":852,"der":853,"indic":854,"during":855,"##ute":856,"poin":857,"found":858,"tech":859,"##raph":860,"treat":861,"However":862,"##ement":863,":":864,"##ings":865,"Q":866,"same":867,"repres":868,"information":869,"giv":870,"##10":871,"##ive":872,"##ines":873,"requi":874,"determ":875,"dep":876,"through":877,"##cept":878,"anti":879,"experim":880,"any":881,"based":882,"mon":883,"er":884,"case":885,"##lement":886,"cal":887,"##ry":888,"studies":889,"##ological":890,"char":891,"hig":892,"##gg":893,"proble":894,"Re":895,"Com":896,"respec":897,"##atis":898,"15":899,"|":900,"##alth":901,"##1.":902,"##ale":903,"class":904,"Con":905,"dem":906,"had":907,"&":908,"know":909,"##oun":910,"##ural":911,"Res":912,"##gorith":913,"import":914,"##ions":915,"##adi":916,"new":917,"##yc":918,"test":919,"##ake":920,"##urther":921,"##rect":922,"##over":923,"##par":924,"##],":925,"##etwork":926,"##ivid":927,"##sible":928,"hy":929,"##rop":930,"##ination":931,"##lis":932,"##2)":933,"end":934,"##istic":935,"##tively":936,"##ited":937,"##yt":938,"three":939,"conf":940,"##bed":941,"##ential":942,"##vious":943,"(3":944,"##ade":945,"##ject":946,"##alu":947,"##eng":948,"##hib":949,"[2":950,"##ties":951,"To":952,"term":953,"car":954,"multi":955,"rep":956,"<":957,"ser":958,"##aining":959,"##ently":960,"distrib":961,"##ior":962,"There":963,"pred":964,"estim":965,"##3,":966,"effect":967,"##ism":968,"could":969,"##ove":970,"##iss":971,"need":972,"Figure":973,"main":974,"av":975,"##ON":976,"expression":977,"##.4":978,"addition":979,"cap":980,"sugg":981,"identif":982,"treatment":983,"small":984,"would":985,"##ulated":986,"value":987,"(19":988,"##requ":989,"provid":990,"##ier":991,"##ock":992,"##de":993,"design":994,"occ":995,"expl":996,"mem":997,"##com":998,"order":999,"elec":1000,"algorith":1001,"##ator":1002,"##ful":1003,"character":1004,"values":1005,"##ince":1006,"20":1007,"year":1008,"##gan":1009,"who":1010,"##ains":1011,"##cer":1012,"##amm":1013,"repor":1014,"##mun":1015,"line":1016,"path":1017,"lim":1018,"11":1019,"##2.":1020,"##ode":1021,"##of":1022,"##arge":1023,"∈":1024,"pot":1025,"oper":1026,"higher":1027,"gl":1028,"##resp":1029,"ed":1030,"##ning":1031,"##con":1032,"similar":1033,"paramet":1034,"tem":1035,"about":1036,"rate":1037,"mic":1038,"vol":1039,"##versity":1040,"network":1041,"given":1042,"##ples":1043,"##nal":1044,"respon":1045,"following":1046,"These":1047,"##4,":1048,"sequ":1049,"##ew":1050,"##AT":1051,"13":1052,"should":1053,"##agn":1054,"##ves":1055,"##-2":1056,"within":1057,"##ically":1058,"dist":1059,"represent":1060,"##................":1061,"..":1062,"##oid":1063,"##ication":1064,"observed":1065,"levels":1066,"lik":1067,"##sive":1068,"##iron":1069,"##osis":1070,"evalu":1071,"selec":1072,"compared":1073,"##ness":1074,"##ormal":1075,"add":1076,"hum":1077,"find":1078,"##air":1079,"##face":1080,"##ived":1081,"those":1082,"Ph":1083,"##5,":1084,"##echan":1085,"gene":1086,"2.":1087,"activity":1088,"important":1089,"bas":1090,"##posed":1091,"##atory":1092,"16":1093,"br":1094,"##ink":1095,"because":1096,"##ental":1097,"##ective":1098,"##inc":1099,"##val":1100,"impro":1101,"##respond":1102,"##0)":1103,"##tig":1104,"##other":1105,"comput":1106,"pap":1107,"second":1108,"associated":1109,"1,":1110,"effects":1111,"dise":1112,"14":1113,"chang":1114,"lo":1115,"frequ":1116,"##ics":1117,"concentr":1118,"applic":1119,"##ma":1120,"##ores":1121,"##ower":1122,"beh":1123,"##ital":1124,"##ty":1125,"##isk":1126,"##itive":1127,"##que":1128,"##fer":1129,"calc":1130,"##ins":1131,"##12":1132,"previous":1133,"##usion":1134,"##ividual":1135,"##iter":1136,"##epend":1137,"pe":1138,"Uni":1139,"##CT":1140,"##to":1141,"obtained":1142,"Ex":1143,"–":1144,"prob":1145,"##ey":1146,"##tro":1147,"##ER":1148,"complex":1149,"el":1150,"grow":1151,"current":1152,"##ross":1153,"approach":1154,"large":1155,"##view":1156,"##line":1157,"due":1158,"predic":1159,"long":1160,"##iod":1161,"18":1162,"##ron":1163,"stand":1164,"sing":1165,"produc":1166,"pop":1167,"pat":1168,"##viron":1169,"ma":1170,"##idence":1171,"##lear":1172,"##5.":1173,"specific":1174,"while":1175,"##hip":1176,"##11":1177,"##ward":1178,"##ai":1179,"##ES":1180,"aff":1181,"mechan":1182,"subs":1183,"(200":1184,"increased":1185,"individual":1186,"##ision":1187,"cr":1188,"result":1189,"##3.":1190,"##the":1191,"performance":1192,"example":1193,"##uce":1194,"dom":1195,"##4)":1196,"μ":1197,"reported":1198,"state":1199,"total":1200,"##6,":1201,"prim":1202,"##4.":1203,"##ences":1204,"respectively":1205,"mean":1206,"gre":1207,"research":1208,"En":1209,"problem":1210,"##ergy":1211,"##ogen":1212,"0.0":1213,"##SA":1214,"##cl":1215,"dr":1216,"prot":1217,"##aw":1218,"##7,":1219,"##50":1220,"systems":1221,"##ified":1222,"proper":1223,"##ission":1224,"tri":1225,"initi":1226,"depend":1227,"##ume":1228,"structure":1229,"decre":1230,"increase":1231,"##5)":1232,"development":1233,"syn":1234,"paper":1235,"coun":1236,"clin":1237,"##arget":1238,"behav":1239,"##ian":1240,"·":1241,"Ac":1242,"comb":1243,"extr":1244,"size":1245,"##min":1246,"##oy":1247,"performed":1248,"conditions":1249,"den":1250,"##ately":1251,"occur":1252,"Table":1253,"part":1254,"##7.":1255,"##erence":1256,"very":1257,"optim":1258,"##3)":1259,"possible":1260,"##6.":1261,"invol":1262,"max":1263,"correspond":1264,"University":1265,"consider":1266,"single":1267,"##onstr":1268,"health":1269,"100":1270,"lead":1271,"##ced":1272,"##sed":1273,"lower":1274,"algorithm":1275,"compar":1276,"##xt":1277,"198":1278,"##ick":1279,"many":1280,"mark":1281,"less":1282,"##oph":1283,"On":1284,"period":1285,"##8,":1286,"allow":1287,"contr":1288,"abs":1289,"##ording":1290,"human":1291,"power":1292,"##ograph":1293,"type":1294,"##verage":1295,"models":1296,"general":1297,"ext":1298,"##lo":1299,"response":1300,"compon":1301,"##tivity":1302,"cases":1303,"##ables":1304,"##ension":1305,"bel":1306,"##ish":1307,"##els":1308,"groups":1309,"risk":1310,"II":1311,"avail":1312,"##tt":1313,"years":1314,"##ffici":1315,"standard":1316,"signal":1317,"##elf":1318,"Am":1319,"##ices":1320,"inhib":1321,"field":1322,"commun":1323,"del":1324,"##though":1325,"30":1326,"point":1327,"Bi":1328,"{":1329,"##omet":1330,"##arm":1331,"##ount":1332,"##ists":1333,"##iver":1334,"sever":1335,"inves":1336,"##ained":1337,"/":1338,"##.;":1339,"described":1340,"##6)":1341,"##ynam":1342,"##ensity":1343,"##ustr":1344,"##xim":1345,"##ium":1346,"Tr":1347,"##ateg":1348,"##ner":1349,"showed":1350,"##tric":1351,"investig":1352,"significantly":1353,"disease":1354,"med":1355,"proposed":1356,"sym":1357,"ear":1358,">":1359,"*":1360,"particular":1361,"##ually":1362,"organ":1363,"assess":1364,"without":1365,"vis":1366,"3.":1367,"##pr":1368,"##CA":1369,"##tegr":1370,"‘":1371,"methods":1372,"He":1373,"progr":1374,"pers":1375,"rat":1376,"target":1377,"te":1378,"changes":1379,"techni":1380,"##irc":1381,"##round":1382,"##8.":1383,"##ld":1384,"serv":1385,"solution":1386,"##ters":1387,"If":1388,"analy":1389,"Ad":1390,"rece":1391,"[3":1392,"##ification":1393,"particip":1394,"##jects":1395,"##vironment":1396,"demonstr":1397,"##ety":1398,"##9,":1399,"shows":1400,"q":1401,"##reg":1402,"fil":1403,"real":1404,"sit":1405,"##ull":1406,"normal":1407,"##based":1408,"##utions":1409,"among":1410,"##ength":1411,"##erest":1412,"local":1413,"##imum":1414,"##ependent":1415,"exp":1416,"correl":1417,"##aterial":1418,"further":1419,"##13":1420,"Sci":1421,"distribution":1422,"##oh":1423,"De":1424,"pub":1425,"factors":1426,"All":1427,"##ote":1428,"##sequ":1429,"pattern":1430,"##ule":1431,"them":1432,"inst":1433,"##ody":1434,"energy":1435,"##sy":1436,"medi":1437,"Ar":1438,"sen":1439,"temper":1440,"acid":1441,"above":1442,"##ource":1443,"##%)":1444,"##-3":1445,"##ets":1446,"##onal":1447,"##ector":1448,"potential":1449,"##own":1450,"##vant":1451,"##osp":1452,"##ested":1453,"##uted":1454,"##oss":1455,"##9.":1456,"relations":1457,"##olution":1458,"α":1459,"##ou":1460,"##ither":1461,"##ype":1462,"##andom":1463,"direct":1464,"##row":1465,"mut":1466,"•":1467,"##ern":1468,"including":1469,"fl":1470,"##ame":1471,"##ank":1472,"Med":1473,"##arch":1474,"##acy":1475,"child":1476,"##20":1477,"Cl":1478,"##eed":1479,"##duce":1480,"how":1481,"##mit":1482,"##7)":1483,"does":1484,"##tional":1485,"##ests":1486,"surface":1487,"bu":1488,"##urn":1489,"neg":1490,"##tics":1491,"##ler":1492,"##ger":1493,"##be":1494,"role":1495,"##AR":1496,"bound":1497,"≤":1498,"err":1499,"##org":1500,"support":1501,"##enter":1502,"available":1503,"range":1504,"tum":1505,"##omen":1506,"##ules":1507,"##af":1508,"##ily":1509,"age":1510,"change":1511,"hyp":1512,"parameters":1513,"collec":1514,"several":1515,"##SI":1516,"ep":1517,"##ware":1518,"region":1519,"##anti":1520,"##ival":1521,"##ving":1522,"discus":1523,"auth":1524,"factor":1525,"##atures":1526,"##8)":1527,"##sc":1528,"50":1529,"lab":1530,"24":1531,"rele":1532,"##hel":1533,"##asing":1534,"common":1535,"##dro":1536,"##000":1537,"25":1538,"related":1539,"\"":1540,"tra":1541,"17":1542,"samples":1543,"Thus":1544,"growth":1545,"log":1546,"even":1547,"##cent":1548,"pri":1549,"sample":1550,"clinical":1551,"##odes":1552,"pur":1553,"micro":1554,"did":1555,"##15":1556,"defined":1557,"flu":1558,"##ulations":1559,"##orph":1560,"immun":1561,"phase":1562,"considered":1563,"being":1564,"##ression":1565,"##−1":1566,"##zed":1567,"##plic":1568,"positive":1569,"##NT":1570,"##actions":1571,"integr":1572,"tak":1573,"intr":1574,"flow":1575,"##inu":1576,"##cop":1577,"post":1578,"hand":1579,"##imension":1580,"contrib":1581,"±":1582,"water":1583,"provide":1584,"step":1585,"cancer":1586,"##jor":1587,"##//":1588,"lear":1589,"##AC":1590,"##man":1591,"prof":1592,"##istr":1593,"##ances":1594,"At":1595,"Un":1596,"##ient":1597,"bet":1598,"species":1599,"##pro":1600,"att":1601,"die":1602,"four":1603,"random":1604,"##och":1605,"##itor":1606,"patient":1607,"Le":1608,"implement":1609,"tiss":1610,"sl":1611,"##ool":1612,"##ah":1613,"Im":1614,"##CR":1615,"expec":1616,"ach":1617,"##ttp":1618,"##io":1619,"vir":1620,"radi":1621,"##osph":1622,"nec":1623,"techn":1624,"environment":1625,"average":1626,"##cep":1627,"##14":1628,"area":1629,"position":1630,"rati":1631,"##lished":1632,"##://":1633,"##met":1634,"molec":1635,"##lied":1636,"Sch":1637,"ele":1638,"care":1639,"effici":1640,"achie":1641,"presented":1642,"tas":1643,"##ocial":1644,"therap":1645,"##me":1646,"##ledge":1647,"differences":1648,"before":1649,"interest":1650,"since":1651,"prac":1652,"##ST":1653,"Let":1654,"(4":1655,"cyc":1656,"##ke":1657,"##sing":1658,"frequency":1659,"##rix":1660,"influ":1661,"##isc":1662,"again":1663,"measured":1664,"cre":1665,"4.":1666,"phys":1667,"caus":1668,"##bers":1669,"larg":1670,"##16":1671,"consist":1672,"see":1673,"temperature":1674,"diagn":1675,"##az":1676,"major":1677,"terms":1678,"##ET":1679,"ox":1680,"circ":1681,"act":1682,"##OR":1683,"gu":1684,"image":1685,"manag":1686,"##25":1687,"hist":1688,"No":1689,"strong":1690,"proced":1691,"##ams":1692,"##19":1693,"space":1694,"orig":1695,"##ators":1696,"population":1697,"struct":1698,"either":1699,"assum":1700,"est":1701,"suc":1702,"##ords":1703,"improve":1704,"##asc":1705,"##sure":1706,"difference":1707,"relationship":1708,"foc":1709,"##omic":1710,"##ife":1711,"dynam":1712,"statis":1713,"~":1714,"must":1715,"fac":1716,"Se":1717,"##eration":1718,"DNA":1719,"##medi":1720,"input":1721,"Ind":1722,"2,":1723,"construc":1724,"##ison":1725,"##MS":1726,"##ised":1727,"conn":1728,"##ploy":1729,"off":1730,"strateg":1731,"CD":1732,"##ible":1733,"##stand":1734,"##atively":1735,"sum":1736,"characteristic":1737,"known":1738,"##9)":1739,"##au":1740,"approxim":1741,"exc":1742,"fin":1743,"ques":1744,"multiple":1745,"Wh":1746,"Therefore":1747,"suggest":1748,"##ae":1749,"##hesis":1750,"##read":1751,"whether":1752,"##RNA":1753,"ge":1754,"mice":1755,"##ton":1756,"##way":1757,"##upp":1758,"##app":1759,"##uration":1760,"##IN":1761,"go":1762,"sens":1763,"top":1764,"inj":1765,"presence":1766,"##very":1767,"##not":1768,"lay":1769,"##ults":1770,"##mission":1771,"accur":1772,"Ne":1773,"stim":1774,"prom":1775,"exist":1776,"##tice":1777,"##ering":1778,"intro":1779,"required":1780,"fam":1781,"1)":1782,"##AP":1783,"spectr":1784,"(199":1785,"require":1786,"##ixed":1787,"##ibr":1788,"various":1789,"call":1790,"back":1791,"##ources":1792,"length":1793,"quality":1794,"sequence":1795,"...":1796,"##onic":1797,"section":1798,"##osed":1799,"behavior":1800,"##inding":1801,"initial":1802,"thus":1803,"material":1804,"loss":1805,"matrix":1806,"##we":1807,"might":1808,"ret":1809,"variables":1810,"##ogn":1811,"linear":1812,"##sh":1813,"##17":1814,"separ":1815,"##ended":1816,"##OD":1817,"##1).":1818,"experiments":1819,";":1820,"const":1821,"##⁄4":1822,"##hy":1823,"mg":1824,"dat":1825,"developed":1826,"hel":1827,"review":1828,"determined":1829,"mm":1830,"##18":1831,"Further":1832,"##sych":1833,"dev":1834,"##ling":1835,"##irm":1836,"##ardi":1837,"##SC":1838,"reduced":1839,"focus":1840,"according":1841,"Rec":1842,"##5%":1843,"genes":1844,"##ude":1845,"##isms":1846,"##ole":1847,"conduc":1848,"made":1849,"properties":1850,"##abil":1851,"chann":1852,"clear":1853,"cost":1854,"##ored":1855,"##las":1856,"More":1857,"way":1858,"least":1859,"##imal":1860,"bre":1861,"##ournal":1862,"##ont":1863,"blood":1864,"##ason":1865,"follows":1866,"http":1867,"ow":1868,"drug":1869,"##ucle":1870,"##erc":1871,"##ales":1872,"##MP":1873,"##ques":1874,"however":1875,"0,":1876,"%":1877,"##40":1878,"appear":1879,"corresponding":1880,"##5).":1881,"##ansi":1882,"##ystem":1883,"concentration":1884,"##IC":1885,"functions":1886,"##hold":1887,"cho":1888,"Sh":1889,"times":1890,"Ins":1891,"view":1892,"knowledge":1893,"##30":1894,"prec":1895,"sk":1896,"##yr":1897,"##uk":1898,"plas":1899,"conver":1900,"points":1901,"β":1902,"enc":1903,"##oint":1904,"##artment":1905,"evidence":1906,"ill":1907,"##land":1908,"identified":1909,"cyt":1910,"##ably":1911,"electr":1912,"much":1913,"]":1914,"##eric":1915,"every":1916,"ve":1917,"better":1918,"##AS":1919,"##ird":1920,"##amp":1921,"##EM":1922,"##ina":1923,"experi":1924,"##ouse":1925,"##hemical":1926,"##2).":1927,"antib":1928,"applied":1929,"super":1930,"Our":1931,"ratio":1932,"##see":1933,"##sib":1934,"##ticle":1935,"##son":1936,"limit":1937,"40":1938,"Research":1939,"##ND":1940,"deg":1941,"features":1942,"##verse":1943,"recept":1944,"proteins":1945,"##ument":1946,"Met":1947,"(201":1948,"production":1949,"##aging":1950,"##tically":1951,"continu":1952,"22":1953,"##for":1954,"##60":1955,"##tial":1956,"fail":1957,"soft":1958,"App":1959,"##OS":1960,"##Figure":1961,"mass":1962,"clus":1963,"##fficient":1964,"ang":1965,"user":1966,"types":1967,"′":1968,"##till":1969,"##rit":1970,"λ":1971,"included":1972,"detail":1973,"[4":1974,"direc":1975,"##atisf":1976,"##ulate":1977,"stress":1978,"##/2":1979,"When":1980,"##ste":1981,"##ols":1982,"output":1983,"children":1984,"##spec":1985,"##ret":1986,"##ulture":1987,"necess":1988,"##know":1989,"good":1990,"##uf":1991,"##get":1992,"##usc":1993,"##position":1994,"provided":1995,"application":1996,"social":1997,"Although":1998,"##ides":1999,"sensi":2000,"##ots":2001,"likely":2002,"##ths":2003,"men":2004,"##))":2005,"##tif":2006,"adj":2007,"##GF":2008,"short":2009,"weight":2010,"stat":2011,"wor":2012,"##AL":2013,"##22":2014,"days":2015,"##utes":2016,"##ying":2017,"Sim":2018,"##atal":2019,"##ike":2020,"rates":2021,"enh":2022,"transi":2023,"my":2024,"schem":2025,"##oma":2026,"relative":2027,"prog":2028,"error":2029,"graph":2030,"source":2031,"Since":2032,"×":2033,"##omy":2034,"##entral":2035,"##olic":2036,"increasing":2037,"5.":2038,"iss":2039,"##ights":2040,"often":2041,"phen":2042,"therefore":2043,"constr":2044,"##text":2045,"##ze":2046,"##80":2047,"isol":2048,"cer":2049,"calculated":2050,"primary":2051,"AC":2052,"##hyl":2053,"##aking":2054,"negative":2055,"read":2056,"##omm":2057,"##oms":2058,"reve":2059,"##anced":2060,"pp":2061,"##vent":2062,"Be":2063,"##3).":2064,"##-4":2065,"0.00":2066,"##mon":2067,"Sc":2068,"like":2069,"means":2070,"hyper":2071,"##istance":2072,"##ero":2073,"After":2074,"##tis":2075,"components":2076,"##here":2077,"Co":2078,"key":2079,"Sp":2080,"lat":2081,"help":2082,"density":2083,"satisf":2084,"Then":2085,"Pr":2086,"problems":2087,"##PS":2088,"One":2089,"hydro":2090,"##21":2091,"Ass":2092,"early":2093,"##uture":2094,"##angu":2095,"##aps":2096,"##ways":2097,"##ially":2098,"##less":2099,"##aces":2100,"##itro":2101,"##omes":2102,"analys":2103,"##ars":2104,"##70":2105,"##den":2106,"tissue":2107,"##ED":2108,"public":2109,"sus":2110,"learning":2111,"node":2112,"understand":2113,"##time":2114,"fib":2115,"defin":2116,"##IV":2117,"(5":2118,"23":2119,"##any":2120,"interaction":2121,"ap":2122,"##oper":2123,"previously":2124,"Gr":2125,"self":2126,"against":2127,"util":2128,"eas":2129,"probability":2130,"access":2131,"determine":2132,"light":2133,"##6).":2134,"##urb":2135,"prior":2136,"phosph":2137,"prop":2138,"Me":2139,"constant":2140,"##inary":2141,"run":2142,"pa":2143,"regard":2144,"load":2145,"##lying":2146,"##--":2147,"make":2148,"consum":2149,"##izing":2150,"greater":2151,"domain":2152,"Fin":2153,"##24":2154,"link":2155,"##AN":2156,"mit":2157,"cross":2158,"Ab":2159,"bene":2160,"women":2161,"##ges":2162,"##23":2163,"##ospital":2164,"##reen":2165,"address":2166,"##RI":2167,"maximum":2168,"Section":2169,"sw":2170,"estab":2171,"cos":2172,"still":2173,"what":2174,"neu":2175,"sem":2176,"resid":2177,"vector":2178,"detection":2179,"##more":2180,"effective":2181,"##ogene":2182,"##icult":2183,"management":2184,"right":2185,"success":2186,"contrast":2187,"##__":2188,"participants":2189,"##zym":2190,"experimental":2191,"reflec":2192,"processes":2193,"down":2194,"##uit":2195,"##ij":2196,"##4).":2197,"pair":2198,"seen":2199,"##lation":2200,"φ":2201,"##tor":2202,"left":2203,"##orem":2204,"##7).":2205,"##aneous":2206,"Br":2207,"here":2208,"life":2209,"characteristics":2210,"expected":2211,"via":2212,"##roup":2213,"additional":2214,"images":2215,"##CC":2216,"few":2217,"##ems":2218,"findings":2219,"Par":2220,"employ":2221,"band":2222,"membr":2223,"reduction":2224,"tumor":2225,"wee":2226,"authors":2227,"Dep":2228,"##term":2229,"##ION":2230,"include":2231,"neur":2232,"Col":2233,"content":2234,"across":2235,"##ching":2236,"recogn":2237,"σ":2238,"(1)":2239,"hom":2240,"##ference":2241,"coe":2242,"##8).":2243,"interp":2244,"##75":2245,"10.":2246,"##itation":2247,"valid":2248,"By":2249,"##ople":2250,"60":2251,"##aving":2252,"suppor":2253,"With":2254,"##roscop":2255,"CO":2256,"##TS":2257,"nodes":2258,"adap":2259,"##pling":2260,"##II":2261,"experiment":2262,"carri":2263,"percent":2264,"phot":2265,"distance":2266,"theory":2267,"simple":2268,"benef":2269,"applications":2270,"open":2271,"yield":2272,"best":2273,"##let":2274,"##aches":2275,"##port":2276,"demonstrated":2277,"block":2278,"sch":2279,"body":2280,"impact":2281,"techniques":2282,"(0.":2283,"##echn":2284,"##ysi":2285,"##ash":2286,"uni":2287,"##arc":2288,"cri":2289,"##AG":2290,"##1;":2291,"##ino":2292,"ide":2293,"capac":2294,"free":2295,"##EE":2296,"fem":2297,"##CL":2298,"##aled":2299,"pressure":2300,"transcri":2301,"involved":2302,"functional":2303,"index":2304,"independent":2305,"report":2306,"##Cl":2307,"fram":2308,"rob":2309,"liter":2310,"his":2311,"hypot":2312,"seg":2313,"Cor":2314,"play":2315,"28":2316,"##lex":2317,"##active":2318,"∑":2319,"δ":2320,"##abor":2321,"Intern":2322,"##ape":2323,"provides":2324,"along":2325,"la":2326,"mechanism":2327,"software":2328,"##lor":2329,"context":2330,"21":2331,"##atural":2332,"variable":2333,"##ray":2334,"##tering":2335,"##9).":2336,"activation":2337,"##ck":2338,"≥":2339,"expressed":2340,"formation":2341,"doc":2342,"task":2343,"displ":2344,"active":2345,"training":2346,"day":2347,"treated":2348,"##=1":2349,"binding":2350,"another":2351,"##90":2352,"##lish":2353,"##ising":2354,"now":2355,"physical":2356,"therapy":2357,"site":2358,"larger":2359,"θ":2360,"transfer":2361,"constrain":2362,"electro":2363,"Gen":2364,"##roph":2365,"##10.":2366,"regions":2367,"0.5":2368,"able":2369,"increases":2370,"∂":2371,"generated":2372,"##uth":2373,"ent":2374,"impl":2375,"##alle":2376,"concentrations":2377,"comparison":2378,"question":2379,"##ascular":2380,"##ections":2381,"situ":2382,"areas":2383,"procedure":2384,"visual":2385,"##38":2386,"26":2387,"##);":2388,"dri":2389,"Mod":2390,"ol":2391,"##gine":2392,"##sp":2393,"USA":2394,"reason":2395,"Health":2396,"IL":2397,"summ":2398,"dimension":2399,"arg":2400,"Pl":2401,"ampl":2402,"later":2403,"equation":2404,"whereas":2405,"[5":2406,"##pper":2407,"selected":2408,"technique":2409,"##ocyt":2410,"component":2411,"##obal":2412,"##tle":2413,"→":2414,"parameter":2415,"##vention":2416,"##vere":2417,"Fr":2418,"pack":2419,"protoc":2420,"che":2421,"##78":2422,"γ":2423,"pul":2424,"##rm":2425,"her":2426,"##AM":2427,"amount":2428,"##ext":2429,"6.":2430,"New":2431,"##by":2432,"po":2433,"repl":2434,"##off":2435,"containing":2436,"(2)":2437,"##ii":2438,"states":2439,"wid":2440,"certain":2441,"##ours":2442,"adv":2443,"##pri":2444,"Or":2445,"##bit":2446,"##AD":2447,"Di":2448,"##ession":2449,"red":2450,"musc":2451,"countr":2452,"individuals":2453,"##li":2454,"##acc":2455,"criter":2456,"program":2457,"feed":2458,"resulting":2459,"##0).":2460,"volume":2461,"Int":2462,"metab":2463,"star":2464,"reduc":2465,"langu":2466,"below":2467,"##come":2468,"rather":2469,"##IT":2470,"##lamm":2471,"Vol":2472,"ax":2473,"people":2474,"brain":2475,"elements":2476,"product":2477,"##ef":2478,"##ones":2479,"cour":2480,"correlation":2481,"search":2482,"Furthermore":2483,"future":2484,"bro":2485,"overall":2486,"recent":2487,"1⁄4":2488,"measurements":2489,"##acts":2490,"##oles":2491,"##Table":2492,"##ining":2493,"Journal":2494,"culture":2495,"##ire":2496,"##CD":2497,"subjects":2498,"Instit":2499,"Trans":2500,"##35":2501,"3,":2502,"near":2503,"##ography":2504,"##inant":2505,"nucle":2506,"peak":2507,"##load":2508,"Chem":2509,"polic":2510,"detected":2511,"##tex":2512,"##26":2513,"##agne":2514,"##tre":2515,"surv":2516,"'":2517,"##99":2518,"ir":2519,"months":2520,"##onses":2521,"##IS":2522,"reaction":2523,"limited":2524,"degree":2525,"ability":2526,"record":2527,"evaluation":2528,"scale":2529,"Anal":2530,"optimal":2531,"family":2532,"lines":2533,"Moreover":2534,"bo":2535,"Stud":2536,"move":2537,"exten":2538,"sites":2539,"System":2540,"27":2541,"##ID":2542,"##2-":2543,"les":2544,"events":2545,"side":2546,"confirm":2547,"highly":2548,"##CH":2549,"##int":2550,"nan":2551,"sympt":2552,"stage":2553,"##2;":2554,"directly":2555,"Science":2556,"ul":2557,"patterns":2558,"##45":2559,"necessary":2560,"cannot":2561,"channel":2562,"##+1":2563,"##(1":2564,"difficult":2565,"memory":2566,"So":2567,"##like":2568,"##28":2569,"structures":2570,"processing":2571,"##EN":2572,"Cons":2573,"cardi":2574,"layer":2575,"##aced":2576,"They":2577,"##equ":2578,"full":2579,"##27":2580,"complete":2581,"altern":2582,"chrom":2583,"enzym":2584,"##order":2585,"simulation":2586,"coll":2587,"##rob":2588,"basis":2589,"received":2590,"expos":2591,"analyzed":2592,"Bl":2593,"29":2594,"infection":2595,"cent":2596,"##ceed":2597,"users":2598,"admin":2599,"studied":2600,"##29":2601,"article":2602,"compos":2603,"influence":2604,"##go":2605,"##65":2606,"responses":2607,"medium":2608,"##jective":2609,"followed":2610,"mM":2611,"possib":2612,"repe":2613,"##itude":2614,"##ury":2615,"##epti":2616,"appropri":2617,"##AB":2618,"##brid":2619,"sal":2620,"##Cs":2621,"cm":2622,"##ired":2623,"##aff":2624,"carb":2625,"chall":2626,"ess":2627,"##izes":2628,"##erve":2629,"Americ":2630,"action":2631,"maintain":2632,"literature":2633,"##1-":2634,"spati":2635,"analyses":2636,"Des":2637,"##ework":2638,"affect":2639,"Cell":2640,"35":2641,"opp":2642,"Li":2643,"taken":2644,"atten":2645,"##gery":2646,"nm":2647,"Finally":2648,"toward":2649,"##eline":2650,"estimated":2651,"##34":2652,"last":2653,"final":2654,"##rence":2655,"Department":2656,"econ":2657,"mechanisms":2658,"##reshold":2659,"indicate":2660,"polym":2661,"##trol":2662,"Per":2663,"Ca":2664,"educ":2665,"Data":2666,"From":2667,"Results":2668,"decrease":2669,"consistent":2670,"Supp":2671,"reduce":2672,"##ns":2673,"##ram":2674,"37":2675,"service":2676,"wave":2677,"measures":2678,"##OL":2679,"differenti":2680,"fixed":2681,"lack":2682,"though":2683,"hem":2684,"indicated":2685,"next":2686,"volt":2687,"Pub":2688,"receptor":2689,"##ring":2690,"##eral":2691,"##otype":2692,"selection":2693,"respect":2694,"##RE":2695,"##oding":2696,"place":2697,"version":2698,"membrane":2699,"fund":2700,"##wise":2701,"##ify":2702,"reference":2703,"##tition":2704,"ec":2705,"induced":2706,"vi":2707,"lip":2708,"##antit":2709,"arch":2710,"vers":2711,"although":2712,"Phys":2713,"ein":2714,"compound":2715,"series":2716,"##IP":2717,"197":2718,"Is":2719,"##induced":2720,"##bo":2721,"τ":2722,"##des":2723,"transform":2724,"##encies":2725,"©":2726,"##pping":2727,"##SP":2728,"account":2729,"##ert":2730,"decreased":2731,"networks":2732,"students":2733,"equal":2734,"##ope":2735,"##uz":2736,"##bor":2737,"##bs":2738,"7.":2739,"assign":2740,"ST":2741,"attrib":2742,"detect":2743,"feature":2744,"bacter":2745,"vs":2746,"let":2747,"dig":2748,"communication":2749,"##raw":2750,"##gl":2751,"Dr":2752,"RNA":2753,"useful":2754,"natural":2755,"called":2756,"##amin":2757,"##back":2758,"original":2759,"mix":2760,"fit":2761,"decision":2762,"conducted":2763,"##related":2764,"concept":2765,"##hers":2766,"autom":2767,"##3;":2768,"tested":2769,"event":2770,"critical":2771,"inhibit":2772,"##ground":2773,"noise":2774,"aim":2775,"quanti":2776,"##0;":2777,"resistance":2778,"##2(":2779,"molecular":2780,"around":2781,"activities":2782,"behavi":2783,"added":2784,"##36":2785,"##ulin":2786,"##ift":2787,"relatively":2788,"take":2789,"unit":2790,"algorithms":2791,"approaches":2792,"##%,":2793,"##ream":2794,"combination":2795,"##UL":2796,"##ery":2797,"##thesis":2798,"##BS":2799,"five":2800,"surve":2801,"First":2802,"##pir":2803,"[6":2804,"object":2805,"##ids":2806,"##pression":2807,"accuracy":2808,"measurement":2809,"subst":2810,"needed":2811,"collected":2812,"identify":2813,"sets":2814,"##iqu":2815,"##EL":2816,"Pre":2817,"##iving":2818,"interactions":2819,"##ml":2820,"continuous":2821,"##ats":2822,"##acted":2823,"restric":2824,"##-5":2825,"##0.0":2826,"produced":2827,"mob":2828,"Sec":2829,"rap":2830,"exec":2831,"##TP":2832,"Fe":2833,"services":2834,"##osen":2835,"central":2836,"##agnetic":2837,"##atin":2838,"eth":2839,"Acc":2840,"##inf":2841,"##4;":2842,"rest":2843,"sci":2844,"##cell":2845,"CH":2846,"##ymph":2847,"##ili":2848,"propor":2849,"strategy":2850,"##pecially":2851,"##otyp":2852,"framework":2853,"##ta":2854,"80":2855,"solutions":2856,"##ead":2857,"dose":2858,"air":2859,"##aling":2860,"element":2861,"Sub":2862,"Techn":2863,"efficiency":2864,"threshold":2865,"illustr":2866,"##uble":2867,"##imals":2868,"##hood":2869,"tests":2870,"equival":2871,"##icity":2872,"exposure":2873,"exhib":2874,"1).":2875,"psych":2876,"she":2877,"##wh":2878,"evaluated":2879,"ρ":2880,"status":2881,"code":2882,"##ense":2883,"##95":2884,"speed":2885,"Ag":2886,"estimate":2887,"prol":2888,"datab":2889,"##RO":2890,"diagnosis":2891,"##ancy":2892,"##icine":2893,"enti":2894,"get":2895,"coord":2896,"zero":2897,"Inc":2898,"revealed":2899,"##1(":2900,"##ands":2901,"definition":2902,"cause":2903,"##itect":2904,"genetic":2905,"##orb":2906,"sequences":2907,"hal":2908,"diss":2909,"##bl":2910,"sex":2911,"appropriate":2912,"serum":2913,"special":2914,"advant":2915,"setting":2916,"##SS":2917,"##imin":2918,"##ime":2919,"supported":2920,"##type":2921,"##,”":2922,"pain":2923,"global":2924,"##ologies":2925,"derived":2926,"turn":2927,"##anes":2928,"mal":2929,"cop":2930,"scheme":2931,"hold":2932,"##EEE":2933,"Comput":2934,"allows":2935,"##olar":2936,"##comes":2937,"##entially":2938,"##igr":2939,"##ula":2940,"##aries":2941,"subsequ":2942,"##ulating":2943,"##tation":2944,"##33":2945,"magn":2946,"##akes":2947,"##67":2948,"fig":2949,"heter":2950,"hard":2951,"##6;":2952,"##di":2953,"##esis":2954,"##urop":2955,"π":2956,"trad":2957,"##5;":2958,"##unction":2959,"##ME":2960,"products":2961,"III":2962,"agg":2963,"##iness":2964,"testing":2965,"Rep":2966,"Sur":2967,"##most":2968,"##grad":2969,"##erences":2970,"##ryst":2971,"cou":2972,"##ulf":2973,"##set":2974,"##ffer":2975,"National":2976,"numer":2977,"relevant":2978,"variation":2979,"technology":2980,"language":2981,"aspec":2982,"MD":2983,"##allel":2984,"distinc":2985,"pH":2986,"##gether":2987,"##ographic":2988,"##erved":2989,"especially":2990,"together":2991,"##reng":2992,"market":2993,"##arily":2994,"##64":2995,"designed":2996,"##ott":2997,"cycle":2998,"Method":2999,"mac":3000,"Theorem":3001,"48":3002,"own":3003,"##lusion":3004,"##overn":3005,"incub":3006,"##anning":3007,"having":3008,"survival":3009,"##igen":3010,"mid":3011,"##cence":3012,"delay":3013,"examined":3014,"Bec":3015,"##MR":3016,"association":3017,"project":3018,"PD":3019,"reli":3020,"gas":3021,"capacity":3022,"voltage":3023,"##otic":3024,"##specific":3025,"##CS":3026,"##arr":3027,"##98":3028,"clos":3029,"mess":3030,"great":3031,"transmission":3032,"##enced":3033,"requires":3034,"##Ps":3035,"##37":3036,"whole":3037,"chem":3038,"acqu":3039,"discussed":3040,"##hr":3041,"##odies":3042,"world":3043,"Clin":3044,"Using":3045,"location":3046,"##ronic":3047,"AD":3048,"##eness":3049,"##ites":3050,"relation":3051,"##MA":3052,"rapid":3053,"conven":3054,"distributed":3055,"##terior":3056,"#":3057,"CA":3058,"##istry":3059,"consequ":3060,"##oll":3061,"experience":3062,"spatial":3063,"While":3064,"investigated":3065,"avoid":3066,"##urs":3067,"done":3068,"##7;":3069,"plant":3070,"##9;":3071,"suggested":3072,"food":3073,"(3)":3074,"##enz":3075,"death":3076,"score":3077,"therm":3078,"plasma":3079,"belie":3080,"IEEE":3081,"##use":3082,"##ocytes":3083,"contains":3084,"##urity":3085,"medical":3086,"##isted":3087,"refer":3088,"evolution":3089,"dynamic":3090,"##str":3091,"practice":3092,"operation":3093,"ke":3094,"Here":3095,"##ategor":3096,"SD":3097,"Note":3098,"4,":3099,"IV":3100,"45":3101,"##cript":3102,"Each":3103,"##Hz":3104,"morph":3105,"CT":3106,"##IR":3107,"##overy":3108,"weak":3109,"##100":3110,"Man":3111,"minim":3112,"author":3113,"head":3114,"Inter":3115,"correct":3116,"##ral":3117,"##1–":3118,"represents":3119,"carried":3120,"words":3121,"become":3122,"##SION":3123,"##lin":3124,"smaller":3125,"##ember":3126,"ra":3127,"##eloc":3128,"suggests":3129,"##arb":3130,"direction":3131,"lit":3132,"[7":3133,"CON":3134,"##oti":3135,"##istration":3136,"mode":3137,"ww":3138,"implementation":3139,"##eu":3140,"por":3141,"AND":3142,"labor":3143,"##3-":3144,"dam":3145,"##oung":3146,"virus":3147,"(6":3148,"quantit":3149,"others":3150,"##.)":3151,"##PA":3152,"arter":3153,"stimul":3154,"0.8":3155,"##SD":3156,"colum":3157,"pass":3158,"ion":3159,"animals":3160,"2)":3161,"##2]":3162,"##dependent":3163,"##urrent":3164,"Ge":3165,"successful":3166,"##orption":3167,"caused":3168,"∫":3169,"sensitivity":3170,"upon":3171,"Spec":3172,"needs":3173,"outcomes":3174,"##zy":3175,"wind":3176,"www":3177,"##1]":3178,"Institute":3179,"Similar":3180,"symptoms":3181,"base":3182,"improved":3183,"lymph":3184,"signals":3185,"spe":3186,"approximately":3187,"##tices":3188,"El":3189,"recomm":3190,"build":3191,"screen":3192,"∗":3193,"substr":3194,"criteria":3195,"streng":3196,"##operative":3197,"broad":3198,"Comp":3199,"facil":3200,"34":3201,"industr":3202,"Mo":3203,"complic":3204,"ur":3205,"understanding":3206,"##ectiv":3207,"subject":3208,"monitor":3209,"achieve":3210,"gluc":3211,"usually":3212,"##8;":3213,"course":3214,"##truction":3215,"##CP":3216,"statistical":3217,"##enari":3218,"AP":3219,"evaluate":3220,"##hic":3221,"##otor":3222,"numbers":3223,"##ept":3224,"failure":3225,"resources":3226,"##outh":3227,"bone":3228,"far":3229,"And":3230,"inflamm":3231,"muscle":3232,"oxid":3233,"mach":3234,"0.01":3235,"internal":3236,"protocol":3237,"return":3238,"##2),":3239,"veloc":3240,"##trans":3241,"members":3242,"##ww":3243,"##otes":3244,"##astic":3245,".0":3246,"##hest":3247,"##iform":3248,"agents":3249,"novel":3250,"##mail":3251,"achieved":3252,"writ":3253,"##na":3254,"Exper":3255,"nature":3256,"##abet":3257,"origin":3258,"Dis":3259,"##arri":3260,"respond":3261,"transition":3262,"##gineering":3263,"##39":3264,"cat":3265,"!":3266,"assay":3267,"rats":3268,"third":3269,"assessment":3270,"define":3271,"six":3272,"##incip":3273,"tend":3274,"##aged":3275,"##certain":3276,"##alk":3277,"##mic":3278,"just":3279,"community":3280,"36":3281,"until":3282,"CI":3283,"surgery":3284,"##sk":3285,"basic":3286,"[8":3287,"intensity":3288,"##ternal":3289,"history":3290,"##sis":3291,"Op":3292,"0.4":3293,"controls":3294,"fa":3295,"##imensional":3296,"repro":3297,"sources":3298,"ω":3299,"close":3300,"sil":3301,"swit":3302,"##usions":3303,"##ortun":3304,"##vari":3305,"##pose":3306,"##CO":3307,"saf":3308,"SP":3309,"liver":3310,"DO":3311,"Ev":3312,"assume":3313,"##uting":3314,"Mic":3315,"##www":3316,"##mitted":3317,"combined":3318,"##ending":3319,"regression":3320,"$":3321,"generation":3322,"##gin":3323,"config":3324,"imaging":3325,"minimum":3326,"Ver":3327,"give":3328,"neut":3329,"fraction":3330,"transcription":3331,"##icial":3332,"architect":3333,"##linear":3334,"##ociety":3335,"##MI":3336,"interval":3337,"8.":3338,"wa":3339,"##dr":3340,"countries":3341,"always":3342,"##ocy":3343,"rang":3344,"##LE":3345,"##ancer":3346,"severe":3347,"concern":3348,"tree":3349,"nam":3350,"##urope":3351,"##rup":3352,"##orth":3353,"##orn":3354,"##rome":3355,"objects":3356,"##aster":3357,"90":3358,"mort":3359,"categor":3360,"##atives":3361,"32":3362,"weeks":3363,"upper":3364,"##asis":3365,"##ogni":3366,"##ee":3367,"##itional":3368,"##emb":3369,"##NF":3370,"##-6":3371,"##ellular":3372,"tw":3373,"Intro":3374,"neigh":3375,"tool":3376,"##ious":3377,"##iting":3378,"33":3379,"generally":3380,"outcome":3381,"##do":3382,"##97":3383,"Na":3384,"produce":3385,"importance":3386,"##uments":3387,"poly":3388,"cut":3389,"##ises":3390,"list":3391,"policy":3392,"##ley":3393,"adop":3394,"American":3395,"##pped":3396,"uses":3397,"parallel":3398,"you":3399,"PL":3400,"published":3401,"##co":3402,"stable":3403,"OF":3404,"emerg":3405,"Pati":3406,"indicates":3407,"Dec":3408,"representation":3409,"programm":3410,"sensor":3411,"##ognitive":3412,"##ump":3413,"frag":3414,"##emic":3415,"costs":3416,"soil":3417,"##level":3418,"##dom":3419,"##ict":3420,"particularly":3421,"International":3422,"##omer":3423,"Hence":3424,"##lier":3425,"neurons":3426,"Because":3427,"exact":3428,"versus":3429,"leg":3430,"rad":3431,"map":3432,"Er":3433,"classification":3434,"##day":3435,"segment":3436,"equations":3437,"tempor":3438,"##omb":3439,"poor":3440,"incor":3441,"mes":3442,"motion":3443,"spectrum":3444,"38":3445,"##NO":3446,"true":3447,"Qu":3448,"##ometric":3449,"##sw":3450,"agre":3451,"##ception":3452,"CR":3453,"Reg":3454,"##helial":3455,"##1),":3456,"scenari":3457,"observations":3458,"Zh":3459,"##aves":3460,"##ident":3461,"##In":3462,"strategies":3463,"Ste":3464,"##)(":3465,"absence":3466,"transport":3467,"##9]":3468,"##ements":3469,"instance":3470,"introduced":3471,"trials":3472,"2.1":3473,"fat":3474,"##itis":3475,"device":3476,"##ender":3477,"##ached":3478,"Neu":3479,"##ready":3480,"##aring":3481,"implic":3482,"##EC":3483,"entire":3484,"##mod":3485,"Key":3486,"vitro":3487,"TH":3488,"##known":3489,"##68":3490,"ca":3491,"pepti":3492,"Lem":3493,"kin":3494,"##amine":3495,"##ek":3496,"CP":3497,"bus":3498,"Europe":3499,"regul":3500,"conclud":3501,"prevent":3502,"ε":3503,"leads":3504,"Cal":3505,"##1/":3506,"consumption":3507,"isolated":3508,"exists":3509,"Eq":3510,"display":3511,"describe":3512,"##ectors":3513,"##32":3514,"agent":3515,"devi":3516,"affected":3517,"choice":3518,"##ostic":3519,"Sm":3520,"metabol":3521,"online":3522,"track":3523,"##pled":3524,"##EP":3525,"existing":3526,"##ares":3527,"Introduction":3528,"##ye":3529,"lung":3530,"school":3531,"thick":3532,"norm":3533,"scores":3534,"check":3535,"##ivo":3536,"##ygen":3537,"force":3538,"(198":3539,"efficient":3540,"proof":3541,"core":3542,"##elling":3543,"label":3544,"chronic":3545,"constraints":3546,"guid":3547,"##ches":3548,"table":3549,"discre":3550,"discussion":3551,"las":3552,"##oplas":3553,"issues":3554,"prep":3555,"chemical":3556,"database":3557,"1:":3558,"deriv":3559,"highest":3560,"hospital":3561,"heart":3562,"##bi":3563,"note":3564,"##uclear":3565,"tox":3566,"##sian":3567,"coordin":3568,"##RA":3569,"##3–":3570,"already":3571,"##uary":3572,"2-":3573,"established":3574,"##GA":3575,"##ensi":3576,"squ":3577,"stability":3578,"##ocks":3579,"person":3580,"forms":3581,"slight":3582,"##dimensional":3583,"whose":3584,"##48":3585,"almost":3586,"remains":3587,"gly":3588,"##ibri":3589,"Two":3590,"2).":3591,"##arent":3592,"##utri":3593,"##pite":3594,"MS":3595,"pathway":3596,"duration":3597,"baseline":3598,"70":3599,"##erate":3600,"##mediate":3601,"##acement":3602,"dynamics":3603,"##CI":3604,"unique":3605,"occurs":3606,"princip":3607,"##isation":3608,"##gn":3609,"kind":3610,"##pective":3611,"fore":3612,"##MD":3613,"Some":3614,"alternative":3615,"secondary":3616,"##max":3617,"mortality":3618,"theore":3619,"trial":3620,"longer":3621,"cult":3622,"##omp":3623,"computer":3624,"resolution":3625,"estimates":3626,"##):":3627,"estimation":3628,"deliver":3629,"slow":3630,"Mc":3631,"cluster":3632,"##abetes":3633,"##oses":3634,"##apy":3635,"half":3636,"##US":3637,"##agen":3638,"chosen":3639,"signaling":3640,"inhibition":3641,"vary":3642,"release":3643,"##ocal":3644,"∆":3645,"RES":3646,"5,":3647,"According":3648,"##ada":3649,"0.1":3650,"##ibility":3651,"##omal":3652,"##GT":3653,"land":3654,"##ll":3655,"##tual":3656,"Medical":3657,"populations":3658,"electron":3659,"##reat":3660,"##berg":3661,"3.1":3662,"accum":3663,"recently":3664,"hypothesis":3665,"##titution":3666,"##96":3667,"hours":3668,"##geb":3669,"curve":3670,"##abilities":3671,"##andid":3672,"##xi":3673,"document":3674,"devices":3675,"finite":3676,"##tructure":3677,"recorded":3678,"requirements":3679,"Analysis":3680,"mRNA":3681,"contain":3682,"biological":3683,"##ameter":3684,"structural":3685,"text":3686,"fluores":3687,"##cepted":3688,"strain":3689,"errors":3690,"ground":3691,"lig":3692,"##tioned":3693,"upd":3694,"govern":3695,"mi":3696,"velocity":3697,"rule":3698,"assessed":3699,"equivalent":3700,"##94":3701,"##uscript":3702,"external":3703,"But":3704,"##ifically":3705,"##ocation":3706,"preval":3707,"##cin":3708,"buffer":3709,"complexity":3710,"##ometry":3711,"##bes":3712,"##CM":3713,"leading":3714,"##ogenesis":3715,"tub":3716,"vivo":3717,"##ilibri":3718,"##...":3719,"##une":3720,"orient":3721,"##normal":3722,"acute":3723,"making":3724,"##9].":3725,"Other":3726,"datas":3727,"##itable":3728,"tasks":3729,"00":3730,"##atric":3731,"rules":3732,"##3]":3733,"##icit":3734,"induc":3735,"##ories":3736,"bal":3737,"##eter":3738,"##77":3739,"predict":3740,"AR":3741,"Experim":3742,"SN":3743,"education":3744,"fast":3745,"##armac":3746,"sched":3747,"shape":3748,"}":3749,"2.2":3750,"uncertain":3751,"##iles":3752,"##orts":3753,"environmental":3754,"steps":3755,"interface":3756,"composition":3757,"divid":3758,"##ogenic":3759,"promot":3760,"diag":3761,"##ffic":3762,"correc":3763,"sin":3764,"China":3765,"plants":3766,"gives":3767,"mouse":3768,"synthesis":3769,"antibody":3770,"boundary":3771,"Lemma":3772,"interpret":3773,"improvement":3774,"little":3775,"##fold":3776,"consists":3777,"##inger":3778,"attention":3779,"ER":3780,"##rem":3781,"diet":3782,"fo":3783,"background":3784,"##BP":3785,"##tered":3786,"1.2":3787,"edge":3788,"##ney":3789,"filter":3790,"##faces":3791,"aggreg":3792,"mainly":3793,"Disc":3794,"molecules":3795,"##ML":3796,"##state":3797,"[10":3798,"1.0":3799,"##atically":3800,"HIV":3801,"distinct":3802,"draw":3803,"located":3804,"optimization":3805,"##umin":3806,"gain":3807,"migr":3808,"symmet":3809,"carbon":3810,"essential":3811,"cellular":3812,"represented":3813,"##otherapy":3814,"goal":3815,"Germ":3816,"dependent":3817,"becomes":3818,"attem":3819,"easily":3820,"cryst":3821,"chain":3822,"Mul":3823,"computed":3824,"##atur":3825,"##1].":3826,"##ched":3827,"law":3828,"PCR":3829,"breast":3830,"ful":3831,"Model":3832,"materials":3833,"ml":3834,"##with":3835,"##ica":3836,"##gical":3837,"appears":3838,"##acellular":3839,"alle":3840,"Mat":3841,"young":3842,"challeng":3843,"IP":3844,"hep":3845,"##group":3846,"asym":3847,"percentage":3848,"particles":3849,"collection":3850,"noted":3851,"##EG":3852,"makes":3853,"##74":3854,"##kg":3855,"##anol":3856,"units":3857,"finding":3858,"male":3859,"recons":3860,"contact":3861,"##ds":3862,"observation":3863,"objective":3864,"(9":3865,"magnetic":3866,"##opath":3867,"microscop":3868,"survey":3869,"##IF":3870,"##85":3871,"##mark":3872,"1.1":3873,"##year":3874,"Def":3875,"si":3876,"controlled":3877,"coefficient":3878,"##aj":3879,"emission":3880,"Information":3881,"##encing":3882,"includes":3883,"enhance":3884,"inform":3885,"Addition":3886,"Pol":3887,"dys":3888,"Rev":3889,"issue":3890,"plate":3891,"characterized":3892,"‖":3893,"optical":3894,"spl":3895,"demonstrate":3896,"elev":3897,"sampling":3898,"generate":3899,"Elec":3900,"compounds":3901,"##eli":3902,"##76":3903,"Min":3904,"Both":3905,"##emia":3906,"##IL":3907,"##IG":3908,"don":3909,"priv":3910,"##3),":3911,"##rents":3912,"##oe":3913,"cle":3914,"investigate":3915,"##dle":3916,"trend":3917,"diseases":3918,"clearly":3919,"##aching":3920,"##ses":3921,"##activ":3922,"synthe":3923,"##era":3924,"predicted":3925,"##oking":3926,"##ask":3927,"√":3928,"##9–":3929,"color":3930,"##acture":3931,"##eres":3932,"##side":3933,"##hal":3934,"compare":3935,"##2].":3936,"glucose":3937,"confirmed":3938,"attack":3939,"accept":3940,"##2/":3941,"η":3942,"##DNA":3943,"recognition":3944,"vide":3945,"wide":3946,"##)-":3947,"extent":3948,"##roc":3949,"prolif":3950,"connected":3951,"implemented":3952,"##LA":3953,"past":3954,"(4)":3955,"biom":3956,"tools":3957,"procedures":3958,"##ticles":3959,"catal":3960,"##ooth":3961,"incorpor":3962,"suggesting":3963,"##ungen":3964,"##change":3965,"plan":3966,"”":3967,"MA":3968,"ð":3969,"variety":3970,"##____":3971,"apop":3972,"purpose":3973,"##ply":3974,"vehic":3975,"assumed":3976,"identification":3977,"Em":3978,"##44":3979,"##loaded":3980,"31":3981,"hybrid":3982,"parts":3983,"regular":3984,"##LC":3985,"##200":3986,"Gu":3987,"column":3988,"Jap":3989,"home":3990,"wild":3991,"rev":3992,"resear":3993,"seed":3994,"##tract":3995,"angle":3996,"##OC":3997,"##iven":3998,"44":3999,"epit":4000,"center":4001,"1.5":4002,"depends":4003,"damage":4004,"regulation":4005,"tissues":4006,"Medicine":4007,"Based":4008,"sent":4009,"questions":4010,"Gl":4011,"##aim":4012,"colon":4013,"Inf":4014,"##point":4015,"?":4016,"3.2":4017,"indicating":4018,"actual":4019,"##arrow":4020,"property":4021,"##ilibrium":4022,"cust":4023,"mom":4024,"cognitive":4025,"loop":4026,"°":4027,"Center":4028,"root":4029,"robust":4030,"##PD":4031,"(8":4032,"##enn":4033,"Second":4034,"host":4035,"Of":4036,"##olved":4037,"degrad":4038,"##-0":4039,"too":4040,"##nder":4041,"##fficients":4042,"injury":4043,"PA":4044,"##31":4045,"Concl":4046,"##0.00":4047,"conventional":4048,"candid":4049,"involve":4050,"fully":4051,"Sw":4052,"2.5":4053,"quantif":4054,"##chron":4055,"Hz":4056,"##ider":4057,"##bry":4058,"##3].":4059,"sense":4060,"classes":4061,"3-":4062,"##entific":4063,"##nce":4064,"alone":4065,"##66":4066,"##ht":4067,"etc":4068,"##4]":4069,"du":4070,"substanti":4071,"developing":4072,"US":4073,"##mm":4074,"##uman":4075,"Cr":4076,"grad":4077,"advantage":4078,"enter":4079,"itself":4080,"female":4081,"##rolog":4082,"regarding":4083,"underlying":4084,"simpl":4085,"profile":4086,"##ohn":4087,"Control":4088,"##inter":4089,"wall":4090,"providing":4091,"correlated":4092,"PC":4093,"relationships":4094,"pan":4095,"##MC":4096,"enzyme":4097,"Eng":4098,"Also":4099,"##ultaneous":4100,"inn":4101,"Mon":4102,"synd":4103,"demand":4104,"##ighted":4105,"strength":4106,"variance":4107,"modified":4108,"polar":4109,"##ptions":4110,"##knowled":4111,"organization":4112,"fer":4113,"reports":4114,"Str":4115,"subsequent":4116,"##rich":4117,"##aily":4118,"(7":4119,"Can":4120,"sufficient":4121,"##oring":4122,"##ends":4123,"Methods":4124,"uniform":4125,"towards":4126,"oxygen":4127,"dil":4128,"55":4129,"ord":4130,"aspects":4131,"strongly":4132,"##lim":4133,"##aph":4134,"figure":4135,"##jection":4136,"coefficients":4137,"##IM":4138,"physi":4139,"resulted":4140,"##omial":4141,"##CLU":4142,"put":4143,"##words":4144,"establish":4145,"Car":4146,"compe":4147,"immune":4148,"NO":4149,"placed":4150,"monitoring":4151,"##plant":4152,"constit":4153,"##izations":4154,"AT":4155,"feedback":4156,"working":4157,"Such":4158,"typical":4159,"Eff":4160,"facilit":4161,"bond":4162,"traditional":4163,"##orders":4164,"##itr":4165,"##ateral":4166,"earlier":4167,"extension":4168,"Ed":4169,"flex":4170,"drugs":4171,"intervention":4172,"9.":4173,"enough":4174,"##VA":4175,"exerc":4176,"##-8":4177,"implies":4178,"0.2":4179,"channels":4180,"items":4181,"##RP":4182,"instead":4183,"##ished":4184,"modeling":4185,"rank":4186,"identi":4187,"possibility":4188,"##col":4189,"yet":4190,"Die":4191,"strains":4192,"##treated":4193,"complet":4194,"##UT":4195,"##orage":4196,"exclud":4197,"situation":4198,"##OH":4199,"partial":4200,"##yst":4201,"##estern":4202,"Diff":4203,"##free":4204,"skin":4205,"Over":4206,"start":4207,"transl":4208,"##ounts":4209,"instr":4210,"architecture":4211,"formal":4212,"##entric":4213,"remov":4214,"fields":4215,"\\":4216,"##CG":4217,"simulations":4218,"wr":4219,"CONCLU":4220,"zu":4221,"latter":4222,"details":4223,"prediction":4224,"incidence":4225,"operations":4226,"ultr":4227,"cere":4228,"metric":4229,"6,":4230,"##inity":4231,"prepar":4232,"motor":4233,"seems":4234,"mobile":4235,"##’’":4236,"detailed":4237,"tax":4238,"occurred":4239,"##ytic":4240,"economic":4241,"##gence":4242,"—":4243,"AL":4244,"##err":4245,"##2+":4246,"##NS":4247,"CONCLUSION":4248,"##%.":4249,"adult":4250,"heat":4251,"39":4252,"double":4253,"begin":4254,"##ged":4255,"##ache":4256,"word":4257,"hence":4258,"formed":4259,"remain":4260,"95%":4261,"##ipher":4262,"extended":4263,"##eth":4264,"##mer":4265,"##ochond":4266,"##itz":4267,"Given":4268,"temporal":4269,"Bo":4270,"amino":4271,"Hospital":4272,"##coh":4273,"neuro":4274,"programs":4275,"During":4276,"capture":4277,"statistically":4278,"##icht":4279,"##ressive":4280,"frame":4281,"pix":4282,"doi":4283,"substrate":4284,"##TA":4285,"##7–":4286,"##rief":4287,"##ologic":4288,"prepared":4289,"causes":4290,"Auth":4291,"##ications":4292,"interesting":4293,"∼":4294,"proportion":4295,"##omas":4296,"##bedd":4297,"learn":4298,"induction":4299,"##no":4300,"bias":4301,"gradi":4302,"##sia":4303,"que":4304,"##ills":4305,"May":4306,"behaviour":4307,"assumption":4308,"phenomen":4309,"##-7":4310,"Group":4311,"pref":4312,"##uct":4313,"enhanced":4314,"sections":4315,"mutations":4316,"##isions":4317,"joint":4318,"neural":4319,"media":4320,"Cancer":4321,"##.-":4322,"security":4323,"0.6":4324,"##ATION":4325,"RESUL":4326,"antibodies":4327,"analog":4328,"##tosis":4329,"diabetes":4330,"##:10.":4331,"##hydro":4332,"extract":4333,"contribution":4334,"Ro":4335,"computation":4336,"Proof":4337,"pairs":4338,"mL":4339,"receptors":4340,"##oved":4341,"transformation":4342,"Society":4343,"##agement":4344,"trig":4345,"seman":4346,"##ening":4347,"##etr":4348,"prevalence":4349,"Γ":4350,"denote":4351,"mel":4352,"matter":4353,"##ochondri":4354,"##otal":4355,"##iction":4356,"overl":4357,"accurate":4358,"manuf":4359,"examples":4360,"simultaneous":4361,"##ao":4362,"coh":4363,"##ogeneous":4364,"ste":4365,"##ser":4366,"employed":4367,"tumors":4368,"ic":4369,"INT":4370,"##ogenous":4371,"AB":4372,"pay":4373,"unc":4374,"week":4375,"description":4376,"arr":4377,"reson":4378,"depth":4379,"##EF":4380,"animal":4381,"ensure":4382,"##6]":4383,"pen":4384,"healthy":4385,"typically":4386,"sup":4387,"majority":4388,"researc":4389,"Hy":4390,"Af":4391,"##atform":4392,"retr":4393,"allowed":4394,"room":4395,"Technology":4396,"qual":4397,"integration":4398,"##4].":4399,"liqu":4400,"##raft":4401,"##CTION":4402,"##53":4403,"emo":4404,"##ociation":4405,"RESULTS":4406,"agreement":4407,"Statis":4408,"Psych":4409,"mixed":4410,"remaining":4411,"symb":4412,"slightly":4413,"cover":4414,"adhe":4415,"showing":4416,"Ref":4417,"##ontal":4418,"bur":4419,"Jan":4420,"Ser":4421,"MP":4422,"operator":4423,"##eting":4424,"##oxid":4425,"sensitive":4426,"supplement":4427,"##ancial":4428,"fluid":4429,"##ano":4430,"administration":4431,"acet":4432,"##ticip":4433,"widely":4434,"##FP":4435,"Ω":4436,"pi":4437,"##ussion":4438,"answ":4439,"daily":4440,"face":4441,"##ct":4442,"hor":4443,"stimulation":4444,"spectra":4445,"##ss":4446,"carcin":4447,"embry":4448,"removed":4449,"ng":4450,"Te":4451,"##SM":4452,"extracted":4453,"Ig":4454,"solid":4455,"##(1)":4456,"##usted":4457,"##truct":4458,"‘‘":4459,"MET":4460,"pregn":4461,"summar":4462,"radiation":4463,"suitable":4464,"∣":4465,"ED":4466,"mill":4467,"##wid":4468,"##asons":4469,"throughout":4470,"theoretical":4471,"Another":4472,"insulin":4473,"##2–":4474,"rol":4475,"explicit":4476,"contin":4477,"equilibrium":4478,"##pts":4479,"marg":4480,"significance":4481,"polymer":4482,"injection":4483,"apply":4484,"resource":4485,"transf":4486,"vacc":4487,"manner":4488,"price":4489,"fav":4490,"lesions":4491,"Ob":4492,"##RS":4493,"wi":4494,"##55":4495,"##abe":4496,"##otypes":4497,"taking":4498,"),":4499,"Equ":4500,"Most":4501,"od":4502,"responsible":4503,"rights":4504,"perf":4505,"##ilt":4506,"nor":4507,"phosphory":4508,"Do":4509,"fir":4510,"##AA":4511,"IN":4512,"5-":4513,"RT":4514,"stages":4515,"counter":4516,"plot":4517,"repeated":4518,"United":4519,"##OP":4520,"contribute":4521,"##def":4522,"completely":4523,"2.3":4524,"iden":4525,"van":4526,"##lecular":4527,"PP":4528,"##stream":4529,"smooth":4530,"aud":4531,"spect":4532,"##uly":4533,"##ample":4534,"ξ":4535,"mentioned":4536,"〈":4537,"##hing":4538,"ask":4539,"##5]":4540,"particle":4541,"3).":4542,"mapping":4543,"chromos":4544,"pathways":4545,"movement":4546,"intern":4547,"ti":4548,"currently":4549,"2010":4550,"metast":4551,"expect":4552,"##aired":4553,"differentiation":4554,"##----":4555,"##ectiveness":4556,"CS":4557,"belong":4558,"idea":4559,"##oted":4560,"1-":4561,"Immun":4562,"##tingu":4563,"presents":4564,"decom":4565,"decl":4566,"##46":4567,"##tives":4568,"personal":4569,"differential":4570,"##bal":4571,"cardiac":4572,"laboratory":4573,"##ips":4574,"thermal":4575,"storage":4576,"##cepts":4577,"magnitude":4578,"Mar":4579,"forward":4580,"takes":4581,"domains":4582,"##last":4583,"##The":4584,"once":4585,"##cal":4586,"dele":4587,"##inated":4588,"##jected":4589,"##yright":4590,"##head":4591,"syndrome":4592,"written":4593,"##roid":4594,"##FT":4595,"ist":4596,"auf":4597,"##ão":4598,"video":4599,"##idity":4600,"da":4601,"diameter":4602,"examine":4603,"construction":4604,":=":4605,"align":4606,"traffic":4607,"incubated":4608,"adults":4609,"session":4610,"circuit":4611,"shift":4612,"##ured":4613,"therapeu":4614,"##edu":4615,"##enge":4616,"das":4617,"Det":4618,"##ils":4619,"##4-":4620,"##istant":4621,"ID":4622,"machine":4623,"conj":4624,"##ategory":4625,"delivery":4626,"##anal":4627,"##fl":4628,"##inations":4629,"toler":4630,"nutri":4631,"##sized":4632,"propose":4633,"explained":4634,"Systems":4635,"closed":4636,"##urg":4637,"opportun":4638,"European":4639,"ψ":4640,"##MT":4641,"invest":4642,"distingu":4643,"ce":4644,"Similarly":4645,"plane":4646,"ν":4647,"##uck":4648,"46":4649,"surgical":4650,"##ochemical":4651,"clusters":4652,"Pa":4653,"lin":4654,"##acing":4655,"contained":4656,"##oids":4657,"created":4658,"##zing":4659,"separate":4660,"##antum":4661,"scat":4662,"##47":4663,"##.0":4664,"empir":4665,"nuclear":4666,"simply":4667,"##esthe":4668,"2015":4669,"eng":4670,"500":4671,"meaning":4672,"orth":4673,"eine":4674,"##ervation":4675,"##rin":4676,"benefits":4677,"recovery":4678,"##ament":4679,"rare":4680,"1/":4681,"alter":4682,"##organ":4683,"##istered":4684,"gel":4685,"##istent":4686,"mutant":4687,"##93":4688,"explain":4689,"white":4690,"2014":4691,"mixture":4692,"actions":4693,"##doi":4694,"business":4695,"hab":4696,"Gene":4697,"##mann":4698,"propag":4699,"##seud":4700,"inser":4701,"##6].":4702,"##poses":4703,"Si":4704,"conflic":4705,"mutation":4706,"message":4707,"Material":4708,"laser":4709,"divided":4710,"##nai":4711,"quite":4712,"bei":4713,"charge":4714,"unknown":4715,"hier":4716,"ones":4717,"vectors":4718,"computational":4719,"−1":4720,"DOI":4721,"create":4722,"##7]":4723,"PR":4724,"##ev":4725,"School":4726,"##width":4727,"platform":4728,"fall":4729,"Labor":4730,"##osing":4731,"curves":4732,"4.1":4733,"sa":4734,"##osa":4735,"von":4736,"acids":4737,"##ades":4738,"ann":4739,"(5)":4740,"abund":4741,"##ING":4742,"grid":4743,"marked":4744,"47":4745,"otherwise":4746,"extraction":4747,"##amb":4748,"Commun":4749,"share":4750,"Non":4751,"##88":4752,"renal":4753,"2017":4754,"rout":4755,"metal":4756,"numerical":4757,"John":4758,"array":4759,"Num":4760,"thickness":4761,"commerc":4762,"query":4763,"except":4764,"rs":4765,"##ided":4766,"commonly":4767,"benefit":4768,"##gi":4769,"endot":4770,"safety":4771,"ways":4772,"##orr":4773,"##atch":4774,"Develop":4775,"configuration":4776,"apparent":4777,"mitochondri":4778,"##ansion":4779,"claim":4780,"thank":4781,"miss":4782,"led":4783,"apoptosis":4784,"parent":4785,"##rim":4786,"moment":4787,"construct":4788,"house":4789,"0.7":4790,"(10":4791,"reducing":4792,"proliferation":4793,"old":4794,"##RT":4795,"##itud":4796,"##orld":4797,"_":4798,"##ayer":4799,"HP":4800,"##utive":4801,"∞":4802,"##itrogen":4803,"IF":4804,"effic":4805,"nonlinear":4806,"maxim":4807,"42":4808,"Rel":4809,"integrated":4810,"keep":4811,"om":4812,"digital":4813,"stem":4814,"##”,":4815,"##5].":4816,"assigned":4817,"##ps":4818,"##6/":4819,"##ards":4820,"##101":4821,"categories":4822,"##knowledg":4823,"retrie":4824,"window":4825,"##bre":4826,"div":4827,"##ceived":4828,"##gebra":4829,"emph":4830,"##bitr":4831,"##mediated":4832,"parti":4833,"##ingly":4834,"##gu":4835,"motiv":4836,"accel":4837,"recur":4838,"neighbor":4839,"seem":4840,"formula":4841,"##ford":4842,"##49":4843,"##oud":4844,"supply":4845,"approximation":4846,"disorders":4847,"2008":4848,"3)":4849,"Progr":4850,"methyl":4851,"##HOD":4852,"##vals":4853,"##tained":4854,"manuscript":4855,"##agon":4856,"Mark":4857,"Compar":4858,"vascular":4859,"median":4860,"PM":4861,"Sciences":4862,"chlor":4863,"exercise":4864,"Study":4865,"Germany":4866,"##Ch":4867,"embedd":4868,"##ovascular":4869,"exchange":4870,"markers":4871,"10,":4872,"amplitude":4873,"subset":4874,"explan":4875,"##7].":4876,"##DL":4877,"prote":4878,"##chem":4879,"PT":4880,"job":4881,"##ras":4882,"easy":4883,"Not":4884,"##dis":4885,"2000":4886,"75":4887,"##well":4888,"computing":4889,"##men":4890,"##oster":4891,"flux":4892,"##ani":4893,"##ocyte":4894,"##monary":4895,"break":4896,"identical":4897,"##ensive":4898,"##omorph":4899,"distributions":4900,"stored":4901,"##pha":4902,"##ENT":4903,"frequently":4904,"height":4905,"2013":4906,"43":4907,"spectral":4908,"Aug":4909,"##ochem":4910,"fi":4911,"appe":4912,"##tib":4913,"##comp":4914,"beam":4915,"65":4916,"epid":4917,"reflect":4918,"independ":4919,"genome":4920,"##ynomial":4921,"minutes":4922,"examination":4923,"##ather":4924,"##arv":4925,"Press":4926,"##elines":4927,"2009":4928,"##che":4929,"aver":4930,"late":4931,"##rs":4932,"operating":4933,"exposed":4934,"##cohol":4935,"bir":4936,"##etal":4937,"7,":4938,"screening":4939,"##5),":4940,"##%),":4941,"##amental":4942,"axis":4943,"potentially":4944,"UK":4945,"SU":4946,"3.3":4947,"##lege":4948,"METHOD":4949,"kinase":4950,"##umb":4951,"##ollow":4952,"##4),":4953,"##1:":4954,"High":4955,"iter":4956,"variability":4957,"reach":4958,"Afric":4959,"hi":4960,"##mL":4961,"anten":4962,"bott":4963,"DC":4964,"##ato":4965,"Val":4966,"##1⁄4":4967,"Engineering":4968,"##uber":4969,"##erson":4970,"##-10":4971,"##going":4972,"similarity":4973,"##uzzy":4974,"196":4975,"Ma":4976,"reasons":4977,").":4978,"Discussion":4979,"##ativ":4980,"constraint":4981,"##ki":4982,"cam":4983,"##ibration":4984,"gran":4985,"older":4986,"Four":4987,"prove":4988,"Biol":4989,"oste":4990,"amb":4991,"##omatic":4992,"abnormal":4993,"deviation":4994,"Wang":4995,"##−1)":4996,"port":4997,"##St":4998,"IC":4999,"##SO":5000,"file":5001,"depending":5002,"Cop":5003,"300":5004,"imm":5005,"##illed":5006,"profession":5007,"works":5008,"spread":5009,"focused":5010,"arbitr":5011,"Austr":5012,"Sever":5013,"##function":5014,"IR":5015,"frequencies":5016,"##raz":5017,"minimal":5018,"##ls":5019,"holds":5020,"##used":5021,"##wa":5022,"##ethyl":5023,"York":5024,"therapeutic":5025,"##asp":5026,"##scill":5027,"considering":5028,"##emi":5029,"##leep":5030,"expansion":5031,"researchers":5032,"Patients":5033,"##MM":5034,"uns":5035,"Now":5036,"reactions":5037,"Clinical":5038,"decreases":5039,"horiz":5040,"##zation":5041,"cytok":5042,"##FA":5043,"edges":5044,"quantitative":5045,"##atics":5046,"oral":5047,"probably":5048,"date":5049,"ant":5050,"treatments":5051,"inhibitor":5052,"positions":5053,"Japan":5054,"##/10.":5055,"##mentation":5056,"##@@":5057,"##aro":5058,"##take":5059,"Keywords":5060,"virtual":5061,"degradation":5062,"Multi":5063,"specim":5064,"##kin":5065,"##eff":5066,"##nt":5067,"rot":5068,"##ench":5069,"##ux":5070,"fiber":5071,"58":5072,"Sign":5073,"interview":5074,"corresponds":5075,"say":5076,"practical":5077,"mil":5078,"54":5079,"##urch":5080,"secre":5081,"differ":5082,"variations":5083,"recommend":5084,"fluorescence":5085,"##roke":5086,"occup":5087,"##inking":5088,"investigation":5089,"End":5090,"##irus":5091,"##tron":5092,"Indeed":5093,"##alian":5094,"##cium":5095,"##tension":5096,"nd":5097,"##vis":5098,"##cos":5099,"##6),":5100,"##abel":5101,"##odium":5102,"##ued":5103,"dimensions":5104,"##8]":5105,"##section":5106,"layers":5107,"na":5108,"##(2)":5109,"gradient":5110,"execution":5111,"##acent":5112,"interpretation":5113,"##mid":5114,"##PC":5115,"##ana":5116,"conclusion":5117,"States":5118,"##icians":5119,"##opro":5120,"expon":5121,"Web":5122,"liquid":5123,"##uation":5124,"bacteria":5125,"0.3":5126,"manif":5127,"diagnostic":5128,"Id":5129,"56":5130,"entr":5131,"##eding":5132,"##actor":5133,"peripher":5134,"efficacy":5135,"technical":5136,"##xy":5137,"Chen":5138,"##rehen":5139,"Serv":5140,"0.9":5141,"##ura":5142,"diversity":5143,"##sch":5144,"financial":5145,"ut":5146,"category":5147,"2012":5148,"specifically":5149,"constructed":5150,"mechanical":5151,"ha":5152,"MR":5153,"##erent":5154,"extrem":5155,"starting":5156,"Ep":5157,"peptide":5158,"identity":5159,"##ectively":5160,"##)]":5161,"fores":5162,"##zen":5163,"##band":5164,"##mediately":5165,"##oscop":5166,"##201":5167,"OR":5168,"adjust":5169,"##ara":5170,"Acad":5171,"desired":5172,"##oral":5173,"middle":5174,"polynomial":5175,"dies":5176,"##imer":5177,"##tribution":5178,"industry":5179,"suppress":5180,"4.2":5181,"##ini":5182,"##ophil":5183,"Network":5184,"ri":5185,"##overed":5186,"coupling":5187,"highl":5188,"matching":5189,"##down":5190,"schedul":5191,"ten":5192,"harm":5193,"##velength":5194,"recr":5195,"inver":5196,"Work":5197,"##ynamic":5198,"##ham":5199,"##.6":5200,"##reless":5201,"feas":5202,"compute":5203,"obvious":5204,"##MB":5205,"##sub":5206,"8,":5207,"##oxic":5208,"quad":5209,"scenario":5210,"oscill":5211,"effectiveness":5212,"artif":5213,"activated":5214,"##8].":5215,"absorption":5216,"##sively":5217,"June":5218,"tun":5219,"government":5220,"##43":5221,"##UCTION":5222,"web":5223,"electric":5224,"yon":5225,"collabor":5226,"Acknowledg":5227,"##raf":5228,"La":5229,"##oded":5230,"bacterial":5231,"##57":5232,"invas":5233,"Aut":5234,"þ":5235,"##PP":5236,"10%":5237,"##vironments":5238,"deep":5239,"dataset":5240,"Under":5241,"##rees":5242,"##irect":5243,"##tra":5244,"black":5245,"dependence":5246,"ms":5247,"Gaus":5248,"famil":5249,"2.4":5250,"confidence":5251,"targets":5252,"mental":5253,"eigen":5254,"infer":5255,"comparing":5256,"pure":5257,"blocks":5258,"bit":5259,"Prof":5260,"compr":5261,"##ROD":5262,"Several":5263,"##86":5264,"inflammatory":5265,"##gative":5266,"ens":5267,"involving":5268,"Proc":5269,"##ries":5270,"complement":5271,"lipid":5272,"profiles":5273,"jud":5274,"mamm":5275,"compens":5276,"barri":5277,"##otrop":5278,"##elihood":5279,"##td":5280,"discuss":5281,"onset":5282,"absol":5283,"organic":5284,"fal":5285,"concepts":5286,"randomly":5287,"##herent":5288,"49":5289,"Algorith":5290,"##control":5291,"Among":5292,"##ran":5293,"bul":5294,"Apr":5295,"Pe":5296,"planning":5297,"vehicle":5298,"##isition":5299,"io":5300,"staining":5301,"##)−":5302,"inside":5303,"heav":5304,"##avity":5305,"pool":5306,"##LS":5307,"##ien":5308,"respir":5309,"induce":5310,"##arant":5311,"recomb":5312,"##EA":5313,"elimin":5314,"##DM":5315,"yields":5316,"quantum":5317,"##iral":5318,"look":5319,"(6)":5320,"poli":5321,"spin":5322,"commit":5323,"calculation":5324,"viol":5325,"That":5326,"MT":5327,"##ibrary":5328,"metabolic":5329,"fundamental":5330,"`":5331,"row":5332,"plus":5333,"periods":5334,"outside":5335,"progression":5336,"complications":5337,"intermediate":5338,"onto":5339,"DI":5340,"##5–":5341,"##ether":5342,"challenge":5343,"hierarch":5344,"offer":5345,"##where":5346,"##flow":5347,"instruc":5348,"locations":5349,"##rosis":5350,"Found":5351,"##73":5352,"humans":5353,"THE":5354,"##0(":5355,"station":5356,"##iment":5357,"##eck":5358,"##water":5359,"SC":5360,"##icon":5361,"##nals":5362,"comparable":5363,"transmit":5364,"bil":5365,"choose":5366,"##went":5367,"aus":5368,"nur":5369,"synchron":5370,"intervals":5371,"gender":5372,"mathem":5373,"##times":5374,"##rown":5375,"ster":5376,"reliability":5377,"limitations":5378,"dual":5379,"partition":5380,"uncertainty":5381,"females":5382,"discrete":5383,"SO":5384,"##lig":5385,"##ives":5386,"Human":5387,"Es":5388,"##NP":5389,"##elves":5390,"diffusion":5391,"##sequently":5392,"mis":5393,"##ella":5394,"existence":5395,"gap":5396,"technologies":5397,"(0":5398,"##RODUCTION":5399,"advanced":5400,"adequ":5401,"##ocard":5402,"##pe":5403,"Bas":5404,"##ifying":5405,"sizes":5406,"immediately":5407,"intra":5408,"##dx":5409,"interven":5410,"Cont":5411,"sat":5412,"##scale":5413,"pulse":5414,"involves":5415,"Su":5416,"interact":5417,"##ush":5418,"pert":5419,"reduces":5420,"##care":5421,"cycles":5422,"obes":5423,"CL":5424,"sed":5425,"##anch":5426,"depression":5427,"controller":5428,"shif":5429,"calculate":5430,"##atical":5431,"##occ":5432,"national":5433,"##tile":5434,"adaptive":5435,"ta":5436,"0.05":5437,"meth":5438,"susp":5439,"Development":5440,"thought":5441,"##radi":5442,"prefer":5443,"##aker":5444,"vess":5445,"count":5446,"accumulation":5447,"##uel":5448,"residual":5449,"##ellig":5450,"protection":5451,"module":5452,"State":5453,"vertical":5454,"Volume":5455,"41":5456,"shared":5457,"##FS":5458,"##PCR":5459,"11.":5460,"prin":5461,"##estinal":5462,"horm":5463,"INTRODUCTION":5464,"empirical":5465,"posterior":5466,"##romb":5467,"##apter":5468,"fish":5469,"perm":5470,"##kele":5471,"2011":5472,"##2:":5473,"##tober":5474,"linked":5475,"lateral":5476,"##cm":5477,"describes":5478,"##eh":5479,"July":5480,"never":5481,"accepted":5482,"traject":5483,"##sm":5484,"manip":5485,"##DA":5486,"CM":5487,"bey":5488,"income":5489,"##)|":5490,"alcohol":5491,"packet":5492,"2007":5493,"##ifier":5494,"questionnai":5495,"clim":5496,"##lementary":5497,"inequ":5498,"simulated":5499,"beyond":5500,"environments":5501,"sensors":5502,"##ociated":5503,"[1]":5504,"Rece":5505,"team":5506,"##endix":5507,"##-9":5508,"##umm":5509,"##yle":5510,"game":5511,"##activity":5512,"sound":5513,"orientation":5514,"cohort":5515,"suscep":5516,"##tenance":5517,"solve":5518,"oil":5519,"Many":5520,"ON":5521,"##ycin":5522,"Interest":5523,"Association":5524,"analyze":5525,"##EV":5526,"59":5527,"##DP":5528,"Sal":5529,"speech":5530,"excl":5531,"##%).":5532,"##genic":5533,"bind":5534,"trade":5535,"##oration":5536,"physiological":5537,"connection":5538,"ring":5539,"metabolism":5540,"angi":5541,"South":5542,"artery":5543,"Char":5544,"why":5545,"##alled":5546,"binary":5547,"##ames":5548,"##bral":5549,"Red":5550,"probe":5551,"##aper":5552,"##ifi":5553,"maps":5554,"referred":5555,"Mean":5556,"PS":5557,"stabil":5558,"denotes":5559,"##ners":5560,"decisions":5561,"##63":5562,"scal":5563,"Computer":5564,"commercial":5565,"kid":5566,"bandwidth":5567,"##ifications":5568,"disorder":5569,"##inition":5570,"fix":5571,"males":5572,"Rem":5573,"modes":5574,"57":5575,"##(2":5576,"METHODS":5577,"ni":5578,"See":5579,"explo":5580,"residues":5581,"2016":5582,"classical":5583,"##fr":5584,"##isons":5585,"aer":5586,"balance":5587,"##onary":5588,"##apl":5589,"##},":5590,"eye":5591,"##taining":5592,"##42":5593,"effort":5594,"##ng":5595,"calcium":5596,"##kt":5597,"##.201":5598,"width":5599,"##ken":5600,"migration":5601,"##len":5602,"Hu":5603,"minor":5604,"Vari":5605,"##ha":5606,"##positive":5607,"charg":5608,"firm":5609,"ratios":5610,"robot":5611,"server":5612,"##LR":5613,"aden":5614,"SA":5615,"##stein":5616,"inte":5617,"building":5618,"logic":5619,"##87":5620,"inhibitors":5621,"separation":5622,"##HA":5623,"##ón":5624,"preparation":5625,"IT":5626,"##omers":5627,"##rices":5628,"classified":5629,"elevated":5630,"##bing":5631,"moderate":5632,"##eg":5633,"##isp":5634,"##theless":5635,"eight":5636,"rise":5637,"carry":5638,"stream":5639,"green":5640,"Additionally":5641,"##assive":5642,"innov":5643,"##GC":5644,"sleep":5645,"dest":5646,"53":5647,"Out":5648,"country":5649,"##omics":5650,"completed":5651,"firms":5652,"Sept":5653,"##bert":5654,"war":5655,"maintained":5656,"##ees":5657,"##ulus":5658,"cruc":5659,"##asi":5660,"CC":5661,"fre":5662,"##lands":5663,"vor":5664,"NP":5665,"150":5666,"wavelength":5667,"introduce":5668,"uptake":5669,"cloud":5670,"AN":5671,"tag":5672,"NS":5673,"##urban":5674,"reserved":5675,"Conference":5676,"##med":5677,"observe":5678,"principle":5679,"##III":5680,"64":5681,"CB":5682,"##la":5683,"centr":5684,"ter":5685,"4-":5686,"neutral":5687,"theorem":5688,"electronic":5689,"removal":5690,"drop":5691,"coding":5692,"Process":5693,"##ding":5694,"sulf":5695,"72":5696,"comprehen":5697,"namely":5698,"@":5699,"changed":5700,"##eling":5701,"replic":5702,"reached":5703,"##versal":5704,"sodium":5705,"What":5706,"complexes":5707,"##=0":5708,"##HC":5709,"um":5710,"split":5711,"stimuli":5712,"successfully":5713,"weights":5714,"##lich":5715,"Po":5716,"##ille":5717,"Ber":5718,"##itively":5719,"guarant":5720,"cultures":5721,"’":5722,"actually":5723,"##ging":5724,"##ariate":5725,"##ori":5726,"phosphorylation":5727,"round":5728,"candidate":5729,"capital":5730,"fault":5731,"##illi":5732,"effectively":5733,"##ho":5734,"inflammation":5735,"kg":5736,"relax":5737,"progress":5738,"thin":5739,"ideal":5740,"brief":5741,"Proposition":5742,"perspective":5743,"##oxy":5744,"##ients":5745,"applying":5746,"##cast":5747,"##hi":5748,"kine":5749,"##ceedings":5750,"##resh":5751,"infected":5752,"panel":5753,"##ournals":5754,"DM":5755,"rapidly":5756,"##att":5757,"pharmac":5758,"March":5759,"surfaces":5760,"deb":5761,"##olester":5762,"##.7":5763,"Statistical":5764,"##sen":5765,"Cu":5766,"AS":5767,"primarily":5768,"composed":5769,"##vol":5770,"Gaussian":5771,"##UR":5772,"GP":5773,"Ap":5774,"matrices":5775,"##.8":5776,"RA":5777,"coverage":5778,"##ellow":5779,"Kr":5780,"month":5781,"95":5782,"happ":5783,"January":5784,"progn":5785,"arri":5786,"Oc":5787,"acquisition":5788,"AA":5789,"promoter":5790,"Author":5791,"Organ":5792,"##HT":5793,"pig":5794,"##ka":5795,"fusion":5796,"cortex":5797,"lowest":5798,"##ister":5799,"Materials":5800,"##ilities":5801,"impair":5802,"roles":5803,"invari":5804,"amounts":5805,"simultaneously":5806,"growing":5807,"infections":5808,"receive":5809,"links":5810,"##ancing":5811,"##pon":5812,"##hand":5813,"receiving":5814,"##data":5815,"expand":5816,"##uits":5817,"private":5818,"disch":5819,"SS":5820,"challenges":5821,"availability":5822,"clustering":5823,"programming":5824,"largest":5825,"##tee":5826,"assemb":5827,"##onomic":5828,"RF":5829,"dry":5830,"##05":5831,"pulmonary":5832,"##LP":5833,"tor":5834,"2:":5835,"systematic":5836,"statistics":5837,"peripheral":5838,"lys":5839,"net":5840,"##oS":5841,"reproduc":5842,"phases":5843,"##69":5844,"protocols":5845,"convergence":5846,"viral":5847,"[1].":5848,"##astro":5849,"temperatures":5850,"absolute":5851,"IS":5852,"normalized":5853,"remained":5854,"April":5855,"exceed":5856,"sti":5857,"interpre":5858,"fuzzy":5859,"4).":5860,"conclude":5861,"##net":5862,"contributions":5863,"Nat":5864,"despite":5865,"birth":5866,"(7)":5867,"mother":5868,"excluded":5869,"closely":5870,"Mal":5871,".1":5872,"NH":5873,"square":5874,"##fig":5875,"TR":5876,"Zhang":5877,"##forms":5878,"Follow":5879,"calculations":5880,"your":5881,"defici":5882,"dominant":5883,"surround":5884,"HR":5885,"kern":5886,"##aria":5887,"utility":5888,"Test":5889,"##}.":5890,"##ancre":5891,"intake":5892,"##atus":5893,"science":5894,"##ened":5895,"proxim":5896,"400":5897,"repair":5898,"NA":5899,"separated":5900,"methodology":5901,"##field":5902,"nerve":5903,"algebra":5904,"ventric":5905,"practices":5906,"exhibit":5907,"malign":5908,"##lip":5909,"reliable":5910,"fed":5911,"##opar":5912,"meet":5913,"##test":5914,"SE":5915,"52":5916,"bes":5917,"##chang":5918,"How":5919,"##otide":5920,"##apping":5921,"enzymes":5922,"##OT":5923,"[2]":5924,"Φ":5925,"seven":5926,"##–2":5927,"##–3":5928,"maintenance":5929,"inner":5930,"consequence":5931,"##ogl":5932,"Definition":5933,"likelihood":5934,"marker":5935,"PI":5936,"box":5937,"##BL":5938,"leuk":5939,"pseud":5940,"Ann":5941,"##cor":5942,"##asure":5943,"assays":5944,"interference":5945,"varying":5946,"manufacture":5947,"families":5948,"##ado":5949,"##pub":5950,"##HR":5951,"thems":5952,"##BM":5953,"01":5954,"regulatory":5955,"##plate":5956,"reverse":5957,"##CE":5958,"hydrogen":5959,"themselves":5960,"##erden":5961,"##–5":5962,"##89":5963,"degrees":5964,"Total":5965,"Time":5966,"name":5967,"SV":5968,"##41":5969,"##ensus":5970,"##ky":5971,"attr":5972,"adverse":5973,"##mg":5974,"household":5975,"static":5976,"false":5977,"##iffiff":5978,"##DS":5979,"ded":5980,"Public":5981,"##wide":5982,"glut":5983,"##oints":5984,"cred":5985,"9,":5986,"##igu":5987,"running":5988,"guidelines":5989,"standards":5990,"circum":5991,"χ":5992,"##62":5993,"##ypt":5994,"bottom":5995,"--":5996,"κ":5997,"covari":5998,"##anted":5999,"North":6000,"##ogeneity":6001,"beginning":6002,"transplant":6003,"vit":6004,"##uff":6005,"Bay":6006,"##http":6007,"behaviors":6008,"Ltd":6009,"##aight":6010,"##HD":6011,"50%":6012,"##elt":6013,"iron":6014,"allowing":6015,"changing":6016,"##amide":6017,"publication":6018,"asympt":6019,"workers":6020,"Despite":6021,"tail":6022,"purposes":6023,"Design":6024,"coli":6025,"##unt":6026,"3.5":6027,"##sibility":6028,"ln":6029,"skills":6030,"diver":6031,"limits":6032,"representative":6033,"argument":6034,"conve":6035,"##gal":6036,"Ear":6037,"Foundation":6038,"segments":6039,"Review":6040,"measuring":6041,"macroph":6042,"specified":6043,"##axis":6044,"kn":6045,"Sol":6046,"Three":6047,"##aptic":6048,"##enous":6049,"radio":6050,"##itt":6051,"NMR":6052,"Step":6053,"representing":6054,"##thal":6055,"stroke":6056,"##osyn":6057,"##mat":6058,"Dav":6059,"##ondition":6060,"requirement":6061,"##ama":6062,"assumptions":6063,"##value":6064,"engineering":6065,"##oxide":6066,"Av":6067,"randomized":6068,"[3]":6069,"specificity":6070,"moving":6071,"[20":6072,"##ensor":6073,"AF":6074,"Received":6075,"##LI":6076,"parents":6077,"purch":6078,"CF":6079,"inputs":6080,"##ergic":6081,"explore":6082,"##6-":6083,"partially":6084,"teac":6085,"li":6086,"Copyright":6087,"Only":6088,"bounded":6089,"##ieh":6090,"proved":6091,"anterior":6092,"plays":6093,"exhibited":6094,"living":6095,"blue":6096,"addressed":6097,"interventions":6098,"Park":6099,"##ECT":6100,"51":6101,"Environment":6102,"Ni":6103,"Cent":6104,"##range":6105,"schemes":6106,"leaf":6107,"doses":6108,"##79":6109,"Del":6110,"##titive":6111,"##aternal":6112,"Care":6113,"electrical":6114,"molecule":6115,"SM":6116,"Bar":6117,"pregnancy":6118,"NF":6119,"Internet":6120,"2007;":6121,"Ti":6122,"hardware":6123,"Mac":6124,"operators":6125,"translation":6126,"belief":6127,"student":6128,"adjacent":6129,"##BD":6130,"experienced":6131,"Soc":6132,"substantial":6133,"##OM":6134,"trees":6135,"determination":6136,"##lies":6137,"##rine":6138,"suff":6139,"##rig":6140,"##mosp":6141,"crucial":6142,"express":6143,"polymorph":6144,"illustrated":6145,"##84":6146,"prospec":6147,"1000":6148,"##onn":6149,"##mo":6150,"stimulus":6151,"Correspond":6152,"[4]":6153,"zone":6154,"select":6155,"recip":6156,"##lets":6157,"perceived":6158,"olig":6159,"coronary":6160,"severity":6161,"Σ":6162,"-0.":6163,"deal":6164,"involvement":6165,"Syn":6166,"distinguish":6167,"scales":6168,"arbitrary":6169,"●":6170,"MC":6171,"presentation":6172,"ions":6173,"extensive":6174,"SR":6175,"situations":6176,"muc":6177,"##troph":6178,"wireless":6179,"Western":6180,"##.1)":6181,"##ads":6182,"August":6183,"coupled":6184,"Even":6185,"ont":6186,"##rog":6187,"##igma":6188,"2006;":6189,"rotation":6190,"substit":6191,"##cy":6192,"##hav":6193,"sexual":6194,"tracking":6195,"independently":6196,"scientific":6197,"carcinoma":6198,"conversion":6199,"lic":6200,"engine":6201,"implications":6202,"appeared":6203,"attempt":6204,"write":6205,"##estic":6206,"attributes":6207,"Due":6208,"localization":6209,"##anks":6210,"intracellular":6211,"stre":6212,"Educ":6213,"##.:":6214,"##tility":6215,"maximal":6216,"thereby":6217,"straight":6218,"2008;":6219,"##ico":6220,"Algorithm":6221,"##IA":6222,"##MENT":6223,"##regulated":6224,"Spr":6225,"nearly":6226,"##lection":6227,"termin":6228,"efforts":6229,"Sym":6230,"##–1":6231,"##iol":6232,"advantages":6233,"urban":6234,"antigen":6235,"policies":6236,"##iring":6237,"September":6238,"##erests":6239,"summary":6240,"2005;":6241,"werden":6242,"UV":6243,"6=":6244,"Case":6245,"possibly":6246,"qualit":6247,"##tid":6248,"##iotic":6249,"asked":6250,"October":6251,"conv":6252,"120":6253,"meta":6254,"##”.":6255,"Path":6256,"Experimental":6257,"sector":6258,"Physi":6259,"adoles":6260,"Applic":6261,"Never":6262,"##orting":6263,"restricted":6264,"##abric":6265,"##eb":6266,"##oming":6267,"Cre":6268,"##actic":6269,"##which":6270,"endothelial":6271,"5%":6272,"##BC":6273,"##neum":6274,"vertex":6275,"fragment":6276,"##obic":6277,")(":6278,"##OG":6279,"##olesterol":6280,"2009;":6281,"sich":6282,"##lusions":6283,"##ault":6284,"front":6285,"##illing":6286,"capable":6287,"strict":6288,"correlations":6289,"3.4":6290,"##Al":6291,"General":6292,"entry":6293,"extra":6294,"Class":6295,"(197":6296,"phenotype":6297,"frequent":6298,"Lee":6299,"criterion":6300,"[5]":6301,"##ulator":6302,"College":6303,"largely":6304,"cardiovascular":6305,"##haps":6306,"##rot":6307,"page":6308,"occurrence":6309,"messages":6310,"##itors":6311,"indirect":6312,"Arch":6313,"0)":6314,"international":6315,"##empor":6316,"quick":6317,"Cam":6318,"request":6319,"match":6320,"adjusted":6321,"obj":6322,"predom":6323,"99":6324,"BP":6325,"rough":6326,"Page":6327,"##process":6328,"Studies":6329,"decomposition":6330,"She":6331,"scenarios":6332,"##inese":6333,"##ading":6334,"initially":6335,"cy":6336,"##8%":6337,"subun":6338,"film":6339,"Her":6340,"poss":6341,"encoding":6342,"instrument":6343,"inclusion":6344,"Laboratory":6345,"built":6346,"##GG":6347,"##mol":6348,"vac":6349,"miR":6350,"determining":6351,"Ha":6352,"Conf":6353,"acces":6354,"displayed":6355,"##illary":6356,"##ida":6357,"2004;":6358,"##ür":6359,"settings":6360,"##oto":6361,"◦":6362,"biop":6363,"December":6364,"##obacter":6365,"soci":6366,"##awa":6367,"##zer":6368,"habit":6369,"##requency":6370,"rig":6371,"staff":6372,"##As":6373,"grade":6374,"recommended":6375,"institution":6376,"exactly":6377,"##pected":6378,"##plex":6379,"##erated":6380,"##0),":6381,"reading":6382,"##TC":6383,"ATP":6384,"varied":6385,"##tration":6386,"##ker":6387,"correction":6388,"superior":6389,"ads":6390,"##inn":6391,"comparisons":6392,"remark":6393,"##negative":6394,"##ediatric":6395,"Sing":6396,"paths":6397,"introduc":6398,"determin":6399,"kidney":6400,"radius":6401,"##mber":6402,"##ungs":6403,"adopted":6404,"Child":6405,"forces":6406,"vertices":6407,"##arities":6408,"respiratory":6409,"##mi":6410,"Management":6411,"##antly":6412,"[6]":6413,"##uss":6414,"##associated":6415,"##ometer":6416,"mmol":6417,"behavioral":6418,"ing":6419,"BL":6420,"101":6421,"##atter":6422,"leaves":6423,"goals":6424,"mitochondrial":6425,"My":6426,"##6%":6427,"##yroid":6428,"camera":6429,"Nevertheless":6430,"Adv":6431,"har":6432,"##formance":6433,"##yes":6434,"##7%":6435,"stead":6436,"##plete":6437,"acquired":6438,"AM":6439,"Proceedings":6440,"##idine":6441,"##cription":6442,"pancre":6443,"Consider":6444,"##sities":6445,"denoted":6446,"Form":6447,"##TR":6448,"##orter":6449,"##class":6450,"##actory":6451,"washed":6452,"subgroup":6453,"ris":6454,"disrup":6455,"selective":6456,"##hn":6457,"##SH":6458,"consideration":6459,"pel":6460,"##ba":6461,"gal":6462,"##-1,":6463,"EP":6464,"disturb":6465,"##61":6466,"##ytes":6467,"disp":6468,"dark":6469,"graphs":6470,"Current":6471,"##Es":6472,"myocard":6473,"ble":6474,"##cut":6475,"##isher":6476,"Conclusions":6477,"adding":6478,"##orted":6479,"2010;":6480,"##fully":6481,"records":6482,"##insic":6483,"##ovember":6484,"##Med":6485,"TNF":6486,"instances":6487,"##)2":6488,"reconstruction":6489,"administered":6490,"WT":6491,"oppos":6492,"##)/":6493,"embedded":6494,"##itory":6495,"2.0":6496,"Interestingly":6497,"communities":6498,"fluct":6499,"resonance":6500,"steady":6501,"rational":6502,"consisting":6503,"km":6504,"##assi":6505,"aspect":6506,"Chinese":6507,"##ciples":6508,"##iat":6509,"##ician":6510,"labeled":6511,"said":6512,"semantic":6513,"Fl":6514,"2(":6515,"##phase":6516,"##rams":6517,"##ERI":6518,"mar":6519,"TB":6520,"4.3":6521,"epithelial":6522,"nitrogen":6523,"Wil":6524,"World":6525,"stated":6526,"variants":6527,"faster":6528,"##UN":6529,"come":6530,"2003;":6531,"##inite":6532,"##ogram":6533,"geometry":6534,"phenomenon":6535,"##arp":6536,"Δ":6537,"2006":6538,"##roscopy":6539,"incubation":6540,"##isting":6541,"(8)":6542,"##lik":6543,"##bruary":6544,"##xiety":6545,"##phosph":6546,"adaptation":6547,"2007).":6548,"[7]":6549,"fair":6550,"mostly":6551,"**":6552,"##−2":6553,"##83":6554,"conduct":6555,"##gel":6556,"##iding":6557,"cultured":6558,"##7),":6559,"##amples":6560,"Published":6561,"compan":6562,"Pat":6563,"##usive":6564,"precision":6565,"2006).":6566,"ischem":6567,"PBS":6568,"nl":6569,"press":6570,"modification":6571,"parad":6572,"##YP":6573,"grown":6574,"##WL":6575,"specimens":6576,"English":6577,"##link":6578,"introduction":6579,"##uate":6580,"##EGF":6581,"gest":6582,"microscopy":6583,"Max":6584,"modulation":6585,"micros":6586,"##ochastic":6587,"believe":6588,"##5-":6589,"Lo":6590,"attributed":6591,"decreasing":6592,"Mol":6593,"##/-":6594,"##Ns":6595,"annot":6596,"serious":6597,"Econ":6598,"underst":6599,"##regulation":6600,"Kim":6601,"##8),":6602,"##=0.":6603,"é":6604,"want":6605,"ye":6606,"##.1.":6607,"ranging":6608,"als":6609,"Pos":6610,"depic":6611,"pow":6612,"Particip":6613,"12,":6614,"regional":6615,"political":6616,"##ortic":6617,"2008).":6618,"arm":6619,"⊗":6620,"SH":6621,"PV":6622,"toxicity":6623,"##acet":6624,"satisfy":6625,"Patient":6626,"Dise":6627,"einer":6628,"##ously":6629,"ea":6630,"dB":6631,"##ontaneous":6632,"##urance":6633,"##54":6634,"##SV":6635,"basal":6636,"2005).":6637,"switching":6638,"##osystem":6639,"mediated":6640,"∧":6641,"systemic":6642,"##va":6643,"Hist":6644,"##ischen":6645,"prevention":6646,"routing":6647,"integral":6648,"Radi":6649,"prem":6650,"narrow":6651,"member":6652,"##atitis":6653,"consequences":6654,"nanopar":6655,"respective":6656,"##ema":6657,"##log":6658,"##ecting":6659,"allocation":6660,"away":6661,"promote":6662,"considerable":6663,"glass":6664,"precip":6665,"##pass":6666,"Pres":6667,"##–4":6668,"triang":6669,"##DR":6670,"pic":6671,"##force":6672,"Next":6673,"##immun":6674,"deploy":6675,"diagnosed":6676,"supports":6677,"projects":6678,"reasonable":6679,"twice":6680,"##apse":6681,".2":6682,"##traction":6683,"tex":6684,"##uma":6685,"formulation":6686,"asymmet":6687,"tube":6688,"##ifug":6689,"notion":6690,"EM":6691,"else":6692,"isolates":6693,"serve":6694,"##arse":6695,"##aken":6696,"##hell":6697,"interests":6698,"MRI":6699,"Bes":6700,"vul":6701,"veget":6702,"##amil":6703,"20.":6704,"Comm":6705,"fresh":6706,"##/0":6707,"item":6708,"bio":6709,"million":6710,"November":6711,"dro":6712,"Stand":6713,"##UC":6714,"##72":6715,"answer":6716,"Appendix":6717,"##ava":6718,"inverse":6719,"approved":6720,"neighb":6721,"(9)":6722,"##iley":6723,"receiver":6724,"analytical":6725,"Ze":6726,"[8]":6727,"##bound":6728,"scattering":6729,"diagram":6730,"atmosp":6731,"horizontal":6732,"none":6733,"1−":6734,"compact":6735,"##92":6736,"##ifer":6737,"##inson":6738,"##terminal":6739,"emphas":6740,"##acr":6741,"paras":6742,"pages":6743,"Molecular":6744,"facilitate":6745,"##unctional":6746,"affects":6747,"2011;":6748,"hypertension":6749,"Λ":6750,"##ectivity":6751,"rib":6752,"recognized":6753,"##ional":6754,"SL":6755,"##sue":6756,"encour":6757,"popular":6758,"ple":6759,"∩":6760,"2009).":6761,"transferred":6762,"##onia":6763,"##aine":6764,"2005":6765,"∀":6766,"##eries":6767,"##ester":6768,"sn":6769,"big":6770,"##Co":6771,"pixel":6772,"##ratic":6773,"extend":6774,"ME":6775,"attit":6776,"##verex":6777,"##urations":6778,"##pd":6779,"extremely":6780,"smoking":6781,"bar":6782,"trace":6783,"2002;":6784,"perception":6785,"peaks":6786,"explanation":6787,"chemotherapy":6788,"compet":6789,"Canada":6790,"CV":6791,"Consequently":6792,"##OF":6793,"dop":6794,"##unk":6795,"alk":6796,"rating":6797,"##ett":6798,"##ski":6799,"2004).":6800,"concerns":6801,"Conclusion":6802,"nt":6803,"HC":6804,"fung":6805,"coordinates":6806,"##9),":6807,"##oks":6808,"ci":6809,"codes":6810,"hypothe":6811,"oxidative":6812,"##ção":6813,"##ita":6814,"ub":6815,"chromat":6816,"dial":6817,"##mia":6818,"accoun":6819,"bands":6820,"equip":6821,"jus":6822,"chromosome":6823,"instit":6824,"Calif":6825,"4)":6826,"experiences":6827,"subsequently":6828,"##(0)":6829,"mutants":6830,"influenced":6831,"antenna":6832,"visible":6833,"questionnaire":6834,"##Dep":6835,"##mean":6836,"##binding":6837,"##pty":6838,"##________":6839,"lesion":6840,"necessarily":6841,"generalized":6842,"##oz":6843,"tom":6844,"propagation":6845,"defects":6846,"purified":6847,"conjug":6848,"##aten":6849,"morphology":6850,"former":6851,"validity":6852,"kernel":6853,"##,1":6854,"##ectives":6855,"Suppose":6856,"Cells":6857,"PRO":6858,"stock":6859,"##idge":6860,"Following":6861,"AG":6862,"sequencing":6863,"dysfunction":6864,"##Is":6865,"##hol":6866,"##+1)":6867,"ultras":6868,"##’,":6869,"enable":6870,"participation":6871,"thromb":6872,"##athe":6873,"[2].":6874,"##ordance":6875,"PK":6876,"##nel":6877,"##56":6878,"##vier":6879,"Tri":6880,"##pati":6881,"cool":6882,"##char":6883,"switch":6884,"ov":6885,"nach":6886,"tolerance":6887,"solving":6888,"##Th":6889,"improving":6890,"##aly":6891,"##reatment":6892,"##81":6893,"alpha":6894,"atoms":6895,"fabric":6896,"Liu":6897,"portion":6898,"Sa":6899,"expressions":6900,"##mal":6901,"mild":6902,"DA":6903,"predictive":6904,"favor":6905,"reviewed":6906,"##eld":6907,"walk":6908,"documents":6909,"##cessive":6910,"DR":6911,"arrang":6912,"##heses":6913,"##bridge":6914,"inhibited":6915,"update":6916,"PH":6917,"Open":6918,"loading":6919,"FA":6920,"numerous":6921,"satisfies":6922,"anat":6923,"2010).":6924,"##itch":6925,"blot":6926,"Lett":6927,"ns":6928,"##hern":6929,"regim":6930,"ty":6931,"1;":6932,"perturb":6933,"##alia":6934,"listed":6935,"xi":6936,"##ondon":6937,"##duct":6938,"concer":6939,"##PT":6940,"##iber":6941,"##ecutive":6942,"2003).":6943,"irradi":6944,"≡":6945,"Ox":6946,"##NR":6947,"associations":6948,"decay":6949,"San":6950,"[9]":6951,"precise":6952,"understood":6953,"Zn":6954,"##82":6955,"underwent":6956,"cul":6957,"thor":6958,"nucleus":6959,"directions":6960,"Once":6961,"transient":6962,"##abetic":6963,"aged":6964,"##elled":6965,"⊆":6966,"client":6967,"accomp":6968,"##71":6969,"missing":6970,"usage":6971,"depos":6972,"proportional":6973,"##derived":6974,"##part":6975,"##lectric":6976,"https":6977,"##.2)":6978,"validation":6979,"11,":6980,"possess":6981,"##path":6982,"##oli":6983,"indeed":6984,"performing":6985,"symmetric":6986,"Previous":6987,"##wards":6988,"radical":6989,"membranes":6990,"piec":6991,"Where":6992,"##igm":6993,"MI":6994,"identifying":6995,"Evalu":6996,"adequate":6997,"##ca":6998,"feasible":6999,"##king":7000,"EC":7001,"agr":7002,"Rob":7003,"̄":7004,"##forward":7005,"Soft":7006,"shap":7007,"2001;":7008,"potenti":7009,"farm":7010,"##−1,":7011,"##ornia":7012,"ligand":7013,"##versely":7014,"Bel":7015,"excell":7016,"ii":7017,"##roscopic":7018,"endogenous":7019,"HA":7020,"tit":7021,"[0,":7022,"##cul":7023,"Social":7024,"papers":7025,"signs":7026,"##ppoc":7027,"##lammatory":7028,"implant":7029,"∪":7030,"##conn":7031,"cham":7032,"Nor":7033,"neuronal":7034,"##ylation":7035,"RP":7036,"pump":7037,"ign":7038,"##irr":7039,"Eth":7040,"Post":7041,"##Ar":7042,"Cardi":7043,"February":7044,"scan":7045,"principal":7046,"ES":7047,"topology":7048,"option":7049,"##istics":7050,"inequality":7051,"appearance":7052,"wat":7053,"##tibility":7054,"##cr":7055,"comprehensive":7056,"supporting":7057,"CONCLUSIONS":7058,"processed":7059,"##icul":7060,"##but":7061,"##ophag":7062,"Pri":7063,"secretion":7064,"##stead":7065,"industrial":7066,"failed":7067,"diverse":7068,"string":7069,"nicht":7070,"##osin":7071,"Go":7072,"##DI":7073,"2000;":7074,"195":7075,"nerv":7076,"replication":7077,"canc":7078,"##oked":7079,"modern":7080,"##DC":7081,"##amic":7082,"Mart":7083,"Number":7084,"2002).":7085,"Equation":7086,"Lim":7087,"Prot":7088,"à":7089,"2004":7090,"##TM":7091,"tract":7092,"multipl":7093,"conflict":7094,"(10)":7095,"-1":7096,"replaced":7097,"1),":7098,"##su":7099,"enab":7100,"crystal":7101,"perfect":7102,"##oglob":7103,"beta":7104,"MHz":7105,"##etric":7106,"##tention":7107,"spontaneous":7108,"Mg":7109,"produces":7110,"mobility":7111,"##02":7112,"ves":7113,"63":7114,"minimize":7115,"combinations":7116,"##91":7117,"##BA":7118,"compression":7119,"distances":7120,"forest":7121,"became":7122,"separately":7123,"cDNA":7124,"##ellar":7125,"##sin":7126,"##Fs":7127,"##hyth":7128,"native":7129,"##9%":7130,"sharing":7131,"##anz":7132,"climate":7133,"rein":7134,"sometimes":7135,"occurring":7136,"##(3)":7137,"LA":7138,"India":7139,"melan":7140,"altered":7141,"articles":7142,"bank":7143,"##ppocamp":7144,"ice":7145,"Program":7146,"phosphate":7147,"utilized":7148,"turb":7149,"##lasts":7150,"##TE":7151,"fatty":7152,"Recently":7153,"##timate":7154,"GA":7155,"lattice":7156,"##RNAs":7157,"centrifug":7158,"##URE":7159,"Fund":7160,"valu":7161,"##icate":7162,"cholesterol":7163,"semi":7164,"##SCs":7165,"##ochemistry":7166,"2012;":7167,"antagon":7168,"SI":7169,"(0,":7170,"##acial":7171,"Type":7172,"adip":7173,"##tible":7174,"EX":7175,"packets":7176,"Micro":7177,"##what":7178,"##etry":7179,"generating":7180,"##luding":7181,"timing":7182,"##erge":7183,"Down":7184,"##work":7185,"##fficiently":7186,"[3].":7187,"mathematical":7188,"auto":7189,"promising":7190,"cytoplas":7191,"250":7192,"weighted":7193,"##.[":7194,"wur":7195,"##ony":7196,"excess":7197,"annual":7198,"ethanol":7199,"acad":7200,"targeted":7201,"##PR":7202,"15,":7203,"1%":7204,"##ga":7205,"##tz":7206,"Chr":7207,"##FC":7208,"Overall":7209,"remove":7210,"exception":7211,"##sevier":7212,"lost":7213,"##journal":7214,"inhibitory":7215,"##gent":7216,"started":7217,"mind":7218,"conclusions":7219,"California":7220,"##iller":7221,"##perm":7222,"rich":7223,"##ji":7224,"heavy":7225,"##aci":7226,"pal":7227,"##ben":7228,"infants":7229,"##treat":7230,"##cons":7231,"analysed":7232,"Å":7233,"##fall":7234,"lif":7235,"Protein":7236,"genomic":7237,"##udes":7238,"cortical":7239,"emotional":7240,"##és":7241,"flat":7242,"options":7243,"pixels":7244,"outer":7245,"LC":7246,"disper":7247,"##prising":7248,"specification":7249,"detector":7250,"##ught":7251,"##Department":7252,"France":7253,"##**":7254,"injected":7255,"abundance":7256,"pip":7257,"phyl":7258,"IgG":7259,"3:":7260,"gate":7261,"##NN":7262,"Their":7263,"Þ":7264,"##ulty":7265,"think":7266,"IFN":7267,"bed":7268,"##methyl":7269,"##reme":7270,"##izer":7271,"##tures":7272,"anxiety":7273,"ML":7274,"dt":7275,"##pi":7276,"sensing":7277,"approximate":7278,"Nature":7279,"symmetry":7280,"##ectomy":7281,"##dep":7282,"fragments":7283,"peptides":7284,"≈":7285,"##6–":7286,"⊂":7287,"##anned":7288,"##eman":7289,"route":7290,"Initi":7291,"investment":7292,"##nat":7293,"oxidation":7294,"##BR":7295,"integer":7296,"85":7297,"##ogenetic":7298,"##analysis":7299,"multic":7300,"##Pro":7301,"dx":7302,"infras":7303,"2011).":7304,"##Ca":7305,"quantity":7306,"kept":7307,"##SE":7308,"##trial":7309,"Pet":7310,".5":7311,"##Me":7312,"dim":7313,"ct":7314,"obesity":7315,"scheduling":7316,"oxide":7317,"flows":7318,"synthetic":7319,"Appro":7320,"evident":7321,"enhancement":7322,"induces":7323,"stochastic":7324,"mol":7325,"overex":7326,"##lect":7327,"[10]":7328,"##Supp":7329,"grant":7330,"risks":7331,"predictions":7332,"directed":7333,"extracellular":7334,"concerning":7335,"live":7336,"Chang":7337,"##iger":7338,"##rew":7339,"poll":7340,"Back":7341,"capability":7342,"##ref":7343,"opposite":7344,"pneum":7345,"accompan":7346,"vo":7347,"5.2":7348,"##inder":7349,"iso":7350,"##keletal":7351,"prices":7352,"shock":7353,"##new":7354,"frames":7355,"Green":7356,"##vered":7357,"excellent":7358,"shall":7359,"##ropy":7360,"SW":7361,"Bu":7362,"companies":7363,"competition":7364,"library":7365,"preced":7366,"plastic":7367,"plates":7368,"slope":7369,"##graph":7370,"instructions":7371,"placebo":7372,"##3:":7373,"terminal":7374,"VI":7375,"##sec":7376,"automatically":7377,"##amination":7378,"participant":7379,"##ritis":7380,"##4–":7381,"electrode":7382,"##3/":7383,"MAT":7384,"tion":7385,"##gans":7386,"slic":7387,"indices":7388,"iteration":7389,"##cing":7390,"##cience":7391,"##top":7392,"spaces":7393,"##orrh":7394,"concluded":7395,"postoperative":7396,"continue":7397,"2001).":7398,"restriction":7399,"movements":7400,"assembly":7401,"derivatives":7402,"Low":7403,"[4].":7404,"5.1":7405,"controlling":7406,"Accepted":7407,"##ione":7408,"isolation":7409,"clar":7410,"##itudinal":7411,"coordinate":7412,"predominant":7413,"##Si":7414,"LV":7415,"plots":7416,"##GE":7417,"PE":7418,"travel":7419,"##rogen":7420,"views":7421,"consent":7422,"##olation":7423,"##oot":7424,"##idal":7425,"##esian":7426,"trust":7427,"offers":7428,"2000).":7429,"epis":7430,"##idden":7431,"##oney":7432,"multiv":7433,"greatly":7434,"##Br":7435,"statement":7436,"##formed":7437,"reactive":7438,"affinity":7439,"decline":7440,"reveal":7441,"##ulative":7442,"##vance":7443,"##ulates":7444,"adhesion":7445,"Comparison":7446,"perme":7447,"##cribed":7448,"gave":7449,"Den":7450,"losses":7451,"Set":7452,"Education":7453,"nons":7454,"contributed":7455,"rab":7456,"##yth":7457,"recall":7458,"##1016/":7459,"representations":7460,"##)).":7461,"bulk":7462,"Kore":7463,"convex":7464,"derive":7465,"projection":7466,"bits":7467,"durch":7468,"enables":7469,"##DH":7470,"##lated":7471,"mesh":7472,"maternal":7473,"probabilities":7474,"##ported":7475,"calibration":7476,"neurop":7477,"composite":7478,"bud":7479,"teaching":7480,"##TT":7481,"germ":7482,"languages":7483,"##inflammatory":7484,"topic":7485,"shorter":7486,"principles":7487,"##otox":7488,"branch":7489,"##rench":7490,"format":7491,"##dri":7492,"##henyl":7493,"##umes":7494,"##cont":7495,"##oman":7496,"consisted":7497,"prostate":7498,"recruit":7499,"Ba":7500,"equally":7501,"68":7502,"extracts":7503,"histor":7504,".3":7505,"##enchmark":7506,"##right":7507,"##rical":7508,"4.5":7509,"##han":7510,"Mem":7511,"ie":7512,"##alities":7513,"fibr":7514,"nloaded":7515,"20,":7516,"imag":7517,"anomal":7518,"difficulty":7519,"pyr":7520,"##osity":7521,"##.3)":7522,"##opathy":7523,"spinal":7524,"TE":7525,"66":7526,"##values":7527,"CE":7528,"respondents":7529,"sufficiently":7530,"satisfaction":7531,"flo":7532,"illness":7533,"contents":7534,"Cd":7535,"##label":7536,"driven":7537,"12.":7538,"tele":7539,"comes":7540,"##dominal":7541,"##activation":7542,"vacu":7543,"##tious":7544,"##fe":7545,"Mich":7546,"alloc":7547,"PO":7548,"doub":7549,"##′)":7550,"barrier":7551,"Fac":7552,"colle":7553,"62":7554,"##itary":7555,"Univers":7556,"##ention":7557,"elastic":7558,"ech":7559,"MO":7560,"psychological":7561,"covered":7562,"journal":7563,"##ocl":7564,"Hol":7565,"fine":7566,"5).":7567,"transitions":7568,"2013;":7569,"expressing":7570,"Bro":7571,"para":7572,"qualitative":7573,"##onym":7574,"educational":7575,"##essor":7576,"##uli":7577,"ts":7578,"##ulatory":7579,"94":7580,"discovery":7581,"Article":7582,"ventricular":7583,"efficiently":7584,"##ows":7585,"##ceptions":7586,"conserved":7587,"##03":7588,"discharge":7589,"Coll":7590,"ball":7591,"(100":7592,"equipment":7593,"company":7594,"au":7595,"intellig":7596,"Treatment":7597,"##:5":7598,"London":7599,"Neuros":7600,"arth":7601,"iv":7602,"sind":7603,"Smith":7604,"FP":7605,"##′,":7606,"##iii":7607,"constants":7608,"##ova":7609,"Qual":7610,"subjected":7611,"Ret":7612,"stop":7613,"datasets":7614,"surrounding":7615,"safe":7616,"prolong":7617,"##DF":7618,"cultural":7619,"utilization":7620,"returns":7621,"electroph":7622,"[11]":7623,"acts":7624,"##iro":7625,"crystall":7626,"##rete":7627,"neither":7628,"́":7629,"1(":7630,"##eta":7631,"stronger":7632,"##zi":7633,"ET":7634,"[5].":7635,"myel":7636,"copy":7637,"developmental":7638,"transformed":7639,"collagen":7640,"(11)":7641,"released":7642,"##ologists":7643,"scaling":7644,"##HO":7645,"##rought":7646,"##Bs":7647,"modeled":7648,"arc":7649,"positively":7650,"Ul":7651,"[1,":7652,"hepat":7653,"summarized":7654,"##weight":7655,"Au":7656,"essentially":7657,"Lu":7658,"continued":7659,"Participants":7660,"##abs":7661,"segmentation":7662,"fewer":7663,"cerebral":7664,"domin":7665,"null":7666,"##dehy":7667,"##nc":7668,"##Ab":7669,"modules":7670,"cod":7671,"alignment":7672,"##ycl":7673,"organized":7674,"precurs":7675,"solved":7676,"##icated":7677,"§":7678,"##GS":7679,"variant":7680,"Part":7681,"Vis":7682,"Gal":7683,"cum":7684,"##osomes":7685,"Cur":7686,"##ozy":7687,"interpreted":7688,"##oprotein":7689,"##heric":7690,"^":7691,"matched":7692,"##ience":7693,"##ono":7694,"##oidal":7695,"Pi":7696,"conceptual":7697,"##rest":7698,"preference":7699,"##burg":7700,"nanoparticles":7701,"waves":7702,"##phal":7703,"FL":7704,"DS":7705,"##lag":7706,"retrieval":7707,"enrol":7708,"##oton":7709,"toxic":7710,"excitation":7711,"feeding":7712,"medicine":7713,"##ificant":7714,"Bal":7715,"organizations":7716,"fibers":7717,"queries":7718,"##olds":7719,"Tur":7720,"alb":7721,"##ensitive":7722,"##8–":7723,"explored":7724,"regulated":7725,"ranges":7726,"##ognition":7727,"explicitly":7728,"Australia":7729,"##lie":7730,"genotype":7731,"connections":7732,"waste":7733,"hippocamp":7734,"##orbidity":7735,"1999;":7736,"Service":7737,"knock":7738,"derivative":7739,"Mass":7740,"dram":7741,"opin":7742,"##adily":7743,"Microb":7744,"macrophages":7745,"##acer":7746,"myocardial":7747,"##isely":7748,"accurately":7749,"67":7750,"##BV":7751,"partners":7752,"14,":7753,"evaluating":7754,"##otropic":7755,"trained":7756,"imped":7757,"cond":7758,"improvements":7759,"TA":7760,"clock":7761,"substrates":7762,"##gly":7763,"satisfied":7764,"ACM":7765,"vision":7766,"##osomal":7767,"Ta":7768,"allele":7769,"Ram":7770,"saline":7771,"##.),":7772,"irre":7773,"##night":7774,"##ortion":7775,"heterogeneous":7776,"os":7777,"wound":7778,"DISC":7779,"compati":7780,"sustain":7781,"##trom":7782,"##ipped":7783,"Dem":7784,"overlap":7785,"dip":7786,"##aki":7787,"tet":7788,"##ya":7789,"took":7790,"##key":7791,"trends":7792,"propos":7793,"##ailable":7794,"join":7795,"HD":7796,"informed":7797,"##9],":7798,"##ulum":7799,"valuable":7800,"##timal":7801,"kinds":7802,".4":7803,"##can":7804,"attribute":7805,"96":7806,"fri":7807,"##ette":7808,"SF":7809,"bis":7810,"deposition":7811,"6-":7812,"Plant":7813,"regen":7814,"##ortunately":7815,"targeting":7816,"##BT":7817,"perhaps":7818,"##arbon":7819,"proceed":7820,"feel":7821,"nom":7822,"##from":7823,"reporting":7824,"##ontinu":7825,"hemat":7826,"##oke":7827,"Use":7828,"vic":7829,"cold":7830,"indicators":7831,"egg":7832,"Commit":7833,"##akers":7834,"synthesized":7835,"##tes":7836,"##ptive":7837,"##treatment":7838,"##operation":7839,"optimized":7840,"var":7841,"metrics":7842,"files":7843,"##04":7844,"Bio":7845,"##HP":7846,"reproduction":7847,"capabilities":7848,"transmitted":7849,"##ishes":7850,"##nic":7851,"ss":7852,"drawn":7853,"runs":7854,"morphological":7855,"##HS":7856,"NC":7857,".00":7858,"[6].":7859,"##amma":7860,"##anese":7861,"arterial":7862,"collis":7863,"impaired":7864,"##ryp":7865,"dog":7866,"##1],":7867,"card":7868,"##avage":7869,"##plicity":7870,"cytokines":7871,"illustrate":7872,"professional":7873,"polyp":7874,"counts":7875,"lob":7876,"##hentic":7877,"##ko":7878,"##AGE":7879,"##ief":7880,"##itig":7881,"book":7882,"intrinsic":7883,"motif":7884,"consensus":7885,"hormone":7886,"##enh":7887,"flexible":7888,"interested":7889,"2012).":7890,"##00,":7891,"##Da":7892,"Biology":7893,"ij":7894,"indicator":7895,"##orient":7896,"##otechn":7897,"him":7898,"dos":7899,"##da":7900,"##ospit":7901,"foot":7902,"##rimin":7903,"anesthe":7904,"Obs":7905,"peer":7906,"##nn":7907,"[12]":7908,"Effect":7909,"##fit":7910,"hydroph":7911,"giving":7912,"chains":7913,"consecutive":7914,"usual":7915,"adapt":7916,"MAP":7917,"primers":7918,"Braz":7919,"mus":7920,"repeat":7921,"applicable":7922,"fetal":7923,"held":7924,"interf":7925,"intrav":7926,"solvent":7927,"77":7928,"complicated":7929,"immediate":7930,"##eller":7931,"##grade":7932,"Dig":7933,"downstream":7934,"##ellen":7935,"opportunity":7936,"(95%":7937,"##asts":7938,"##MO":7939,"##.11":7940,"(12)":7941,"finally":7942,"##iling":7943,"Power":7944,"vulner":7945,"Behav":7946,"##idi":7947,"degen":7948,"traits":7949,"##ellite":7950,"scope":7951,"##NC":7952,"##iquit":7953,"##ership":7954,"##luores":7955,"##emat":7956,"cycl":7957,"preferred":7958,"aug":7959,"Recent":7960,"limitation":7961,"2018":7962,"##ahl":7963,"driving":7964,"ζ":7965,"stained":7966,"##fi":7967,"##ago":7968,"disk":7969,"##omed":7970,"##.5)":7971,"##rene":7972,"BMI":7973,"leak":7974,"##typ":7975,"consistency":7976,"13,":7977,"producing":7978,"verify":7979,"dietary":7980,"auch":7981,"Supplementary":7982,"vitamin":7983,"##emble":7984,"bp":7985,"sole":7986,"beneficial":7987,"quickly":7988,"##VI":7989,"aimed":7990,"aggregation":7991,"Elsevier":7992,"discrim":7993,"##eph":7994,"Long":7995,"demonstrates":7996,"##ompl":7997,"abstract":7998,"fluctu":7999,"##itored":8000,"##mented":8001,"overcome":8002,"clinically":8003,"##ivision":8004,"##perf":8005,"crop":8006,"##adder":8007,"##gers":8008,"1.4":8009,"##BI":8010,"##avig":8011,"prospective":8012,"20%":8013,"centers":8014,"1.3":8015,"##ui":8016,"##ifies":8017,"resol":8018,"donor":8019,"##elle":8020,"[7].":8021,"##pre":8022,"recommendations":8023,"ideas":8024,"Incre":8025,"##137":8026,"boundaries":8027,"yeast":8028,"lists":8029,"1998;":8030,"Specifically":8031,"Electr":8032,"##hl":8033,"##queous":8034,"sugges":8035,"NE":8036,"automatic":8037,"replacement":8038,"trajectory":8039,"conditional":8040,"Arab":8041,"ia":8042,"##rend":8043,"picture":8044,"##acturing":8045,"##reness":8046,"GC":8047,"##fol":8048,"transcript":8049,"##ira":8050,"recurrence":8051,"impairment":8052,"##Ac":8053,"antioxid":8054,"Proble":8055,"assistance":8056,"requests":8057,"##iatric":8058,"Chemical":8059,"##inear":8060,"initiation":8061,"Mor":8062,"##outhern":8063,"##icultural":8064,"evolutionary":8065,"##.).":8066,"persons":8067,"invariant":8068,"100%":8069,"Van":8070,"2003":8071,"institutions":8072,"Act":8073,"synt":8074,"##rological":8075,"##ergies":8076,"##ancies":8077,"medication":8078,"zur":8079,"BR":8080,"reag":8081,"(1,":8082,"assignment":8083,"##umor":8084,"##9/":8085,"##luor":8086,"heterogeneity":8087,"RO":8088,"61":8089,"hepatic":8090,"theories":8091,"##Ms":8092,"HF":8093,"legal":8094,"Plas":8095,"vaccine":8096,"##size":8097,"cerv":8098,"hour":8099,"spectrom":8100,"routine":8101,"deficiency":8102,"fracture":8103,"##onom":8104,"pil":8105,"entit":8106,"Oper":8107,"##.9":8108,"Mi":8109,"Identif":8110,"##ophys":8111,"prelim":8112,"lie":8113,"contract":8114,"assuming":8115,"...,":8116,"increasingly":8117,"gastric":8118,"clean":8119,"##nas":8120,"Integr":8121,"filters":8122,"Log":8123,"Example":8124,"##.4)":8125,"heur":8126,"homogeneous":8127,"retros":8128,"##derly":8129,"defect":8130,"##was":8131,"##ozyg":8132,"Its":8133,"society":8134,"deple":8135,"throughput":8136,"##oo":8137,"setup":8138,"coinc":8139,"relevance":8140,"nine":8141,"##])":8142,"accordance":8143,"Africa":8144,"Additional":8145,"stack":8146,"17.":8147,"inters":8148,"GR":8149,"dors":8150,"documented":8151,"##ACK":8152,"cavity":8153,"##51":8154,"Mit":8155,"similarly":8156,"RS":8157,"Software":8158,"currents":8159,"salt":8160,"0:":8161,"suppression":8162,"ho":8163,"monitored":8164,"longitudinal":8165,"ranged":8166,"##mental":8167,"somewhat":8168,"##oustic":8169,"ai":8170,"definitions":8171,"processor":8172,"asth":8173,"clon":8174,"affecting":8175,"##pus":8176,"TP":8177,"normally":8178,"Energy":8179,"##.10":8180,"74":8181,"susceptibility":8182,"productivity":8183,"cathe":8184,"refers":8185,"preliminary":8186,"sensory":8187,"Yang":8188,"solar":8189,"##gue":8190,"Lear":8191,"infrastructure":8192,"##ische":8193,"Willi":8194,"dispersion":8195,"##opo":8196,"tumour":8197,"##Sch":8198,"##gar":8199,"Typ":8200,"∣∣":8201,"##eterm":8202,"##ala":8203,"marginal":8204,"worth":8205,"##relation":8206,"African":8207,"ANO":8208,"illustrates":8209,"resistant":8210,"milk":8211,"latency":8212,"regime":8213,"drive":8214,"Measure":8215,"##-(":8216,"Pharmac":8217,"Har":8218,"4.4":8219,"organisms":8220,"##try":8221,"benchmark":8222,"Character":8223,"##open":8224,"fluor":8225,"##erenti":8226,"localized":8227,"Sl":8228,"##ube":8229,"Theory":8230,"##-12":8231,"cultiv":8232,"extreme":8233,"displacement":8234,"##uple":8235,"##asm":8236,"##Re":8237,"participate":8238,".7":8239,"cytos":8240,"remote":8241,"##zo":8242,"Prim":8243,"##ington":8244,"Index":8245,"locally":8246,"evol":8247,"creating":8248,"##step":8249,"[8].":8250,"##tensive":8251,"customer":8252,"modifications":8253,"##Rs":8254,"trigger":8255,"powerful":8256,"HT":8257,"##utation":8258,"awa":8259,"reflected":8260,"scanning":8261,"films":8262,"intestinal":8263,"colleag":8264,"distal":8265,"##ola":8266,"##iculties":8267,"admission":8268,"DE":8269,"Vi":8270,"infarc":8271,"##ologous":8272,"ACK":8273,"##nm":8274,"haz":8275,"##ospitals":8276,"##helium":8277,"symbol":8278,"cation":8279,"##58":8280,"##--------":8281,"correctly":8282,"precisely":8283,"##ails":8284,"template":8285,"##⁄2":8286,"rain":8287,"##odynamic":8288,"Brazil":8289,"Evaluation":8290,"Der":8291,"rural":8292,"##uge":8293,"##ycle":8294,"##annel":8295,"vessels":8296,"69":8297,"attached":8298,"Sil":8299,"thread":8300,"seconds":8301,"##ota":8302,"Circ":8303,"oder":8304,"roots":8305,"generic":8306,"##iliar":8307,"Ke":8308,"##............":8309,"[13]":8310,"transplantation":8311,"elic":8312,"intended":8313,"##2],":8314,"fractions":8315,"##respon":8316,"sto":8317,"relaxation":8318,"opportunities":8319,"ou":8320,"bounds":8321,"suspension":8322,"##thern":8323,"##pa":8324,"##opes":8325,"exponential":8326,"lens":8327,"16,":8328,"academic":8329,"Bur":8330,"##Tr":8331,"delayed":8332,"plasmid":8333,"##1/2":8334,"sequential":8335,"burden":8336,"##sim":8337,"columns":8338,"##,\"":8339,"substantially":8340,"recombinant":8341,"Centre":8342,"ure":8343,"##onucle":8344,"chamber":8345,"##vas":8346,"dead":8347,"behind":8348,"oa":8349,"Sk":8350,"##ogens":8351,"sampled":8352,"biomass":8353,"databases":8354,"guide":8355,"##cents":8356,"##ander":8357,"##aut":8358,"angles":8359,"##ICA":8360,"##Am":8361,"Instead":8362,"characterize":8363,"##then":8364,"geometric":8365,"##idation":8366,"varies":8367,"ANOVA":8368,"##irable":8369,"Committee":8370,"preferences":8371,"ana":8372,"sessions":8373,"combining":8374,"tuber":8375,"overhead":8376,"##cha":8377,"stere":8378,"##cean":8379,"cancers":8380,"References":8381,"prost":8382,"West":8383,"##aceu":8384,"##achment":8385,"Ho":8386,"##dehyde":8387,"lact":8388,"##adj":8389,"coordination":8390,"FR":8391,"Access":8392,"##USSION":8393,"figures":8394,"carrier":8395,"mature":8396,"Lin":8397,"##lected":8398,"unclear":8399,"##rowth":8400,"ith":8401,"......":8402,"Law":8403,"98":8404,"adjustment":8405,"objectives":8406,"##erential":8407,"transcriptional":8408,"incom":8409,"1999).":8410,"justif":8411,"##bar":8412,"Cap":8413,"##Ds":8414,"insight":8415,"undergo":8416,"margin":8417,"##anger":8418,"##usi":8419,"periodic":8420,"tip":8421,"correspondence":8422,"deletion":8423,"helpful":8424,"##edom":8425,"whom":8426,".8":8427,"##ogonal":8428,"train":8429,"acceptable":8430,"78":8431,"challenging":8432,"properly":8433,"manufacturer":8434,"Pers":8435,"investigations":8436,"causing":8437,"OS":8438,"nic":8439,"finger":8440,"inherent":8441,"##Fe":8442,"Wi":8443,"residue":8444,"amplification":8445,"attacks":8446,"##PL":8447,"##pressed":8448,"##pol":8449,"##CES":8450,"Black":8451,"##ez":8452,"operational":8453,"writing":8454,"describing":8455,"nod":8456,"2014;":8457,"Figures":8458,"84":8459,"##nes":8460,"##lan":8461,"##tization":8462,"DISCUSSION":8463,"Sn":8464,"hous":8465,"cache":8466,"##keit":8467,"##zero":8468,"revised":8469,"outputs":8470,"competitive":8471,"##otion":8472,"##Sh":8473,"##amily":8474,"##body":8475,"##yg":8476,"##icular":8477,"[9].":8478,"##after":8479,"1997;":8480,"newly":8481,"influences":8482,"cord":8483,"##standing":8484,"MM":8485,"Ri":8486,"RE":8487,"##We":8488,"difficulties":8489,"##wer":8490,"##rected":8491,"##rank":8492,"Issue":8493,"contrad":8494,"permission":8495,"dend":8496,"conformation":8497,"##PE":8498,"Effects":8499,"physicians":8500,"##sol":8501,"Diagn":8502,"priority":8503,"wird":8504,"obser":8505,"Pan":8506,"validated":8507,"entropy":8508,"##osome":8509,"Scientific":8510,"microb":8511,"Wiley":8512,"generates":8513,"Experiment":8514,"##such":8515,"##.\"":8516,"moun":8517,".6":8518,"overview":8519,"copies":8520,"regardless":8521,"TM":8522,"##ona":8523,"##uction":8524,"maintaining":8525,"##edia":8526,"für":8527,"hot":8528,"10-":8529,"##iliary":8530,"##etary":8531,"(13)":8532,"tight":8533,"actin":8534,"polarization":8535,"Add":8536,"Drug":8537,"##ieties":8538,"##.2.":8539,"providers":8540,"##war":8541,"105":8542,"aqueous":8543,"impacts":8544,"Vir":8545,"season":8546,"mixing":8547,"artificial":8548,"##called":8549,"neighborhood":8550,"arise":8551,"##armaceu":8552,"package":8553,"gold":8554,"discrimin":8555,"##ucl":8556,"colleagues":8557,"stay":8558,"##NAL":8559,"BS":8560,"[14]":8561,"##7/":8562,"##stract":8563,"notation":8564,"implicit":8565,"##haus":8566,"Nan":8567,"Hig":8568,"##kl":8569,"lot":8570,"2013).":8571,"##shop":8572,"manifest":8573,"##van":8574,"##infected":8575,"##undred":8576,"abnormalities":8577,"hat":8578,"microscope":8579,"2008,":8580,"##ingu":8581,"##rd":8582,"reflects":8583,"candidates":8584,"Central":8585,"penetr":8586,"##.5%":8587,"##totic":8588,"##olip":8589,"America":8590,"##chen":8591,"creation":8592,"##ipl":8593,"600":8594,"##08":8595,"rect":8596,"comments":8597,"##stage":8598,"fitness":8599,"nuclei":8600,"diabetic":8601,"elderly":8602,"##Ph":8603,"21.":8604,"filtering":8605,"##vey":8606,"##okine":8607,"store":8608,"Image":8609,"embryos":8610,"biomark":8611,"##rology":8612,"Swed":8613,"economy":8614,"teachers":8615,"##Ad":8616,"##mma":8617,"hyd":8618,"Chapter":8619,"##auge":8620,"batter":8621,"##za":8622,"insertion":8623,"##activated":8624,"2002":8625,"##iotics":8626,"captured":8627,"Mil":8628,"aims":8629,"##06":8630,"facilities":8631,"##using":8632,"antic":8633,"##vents":8634,"proven":8635,"##IST":8636,"alterations":8637,"GL":8638,"BA":8639,"requiring":8640,"##52":8641,"py":8642,"Che":8643,"Bre":8644,"Are":8645,"Blood":8646,"eyes":8647,"recording":8648,"##erative":8649,"##istence":8650,"rh":8651,"choices":8652,"Pal":8653,"Italy":8654,"##mem":8655,"ju":8656,"Hear":8657,"oc":8658,"reasoning":8659,"Mathem":8660,"73":8661,"CN":8662,"(%)":8663,"Dev":8664,"accompl":8665,"His":8666,"Ol":8667,"atom":8668,"##fortunately":8669,"Schem":8670,"road":8671,"##acchar":8672,"BM":8673,"[10].":8674,"foreign":8675,"regulate":8676,"##ivered":8677,"compil":8678,"76":8679,"##uries":8680,"bund":8681,"##@@@@":8682,"signature":8683,"13.":8684,"Through":8685,"##rie":8686,"1998).":8687,"##itone":8688,"2010,":8689,"readily":8690,"(20":8691,"infinite":8692,"##unctions":8693,"PU":8694,"atomic":8695,"##asal":8696,"BD":8697,".9":8698,"Assess":8699,"biopsy":8700,"##(1,":8701,"generator":8702,"##cology":8703,"2009,":8704,"constitu":8705,"constructs":8706,"##′′":8707,"Cho":8708,"##.1,":8709,"Remark":8710,"##timately":8711,"##changed":8712,"concerned":8713,"inoc":8714,"city":8715,"primer":8716,"refr":8717,"kit":8718,"##nis":8719,"glob":8720,"##atif":8721,"##vision":8722,"Comb":8723,"##Se":8724,"##+)":8725,"0.25":8726,"FOR":8727,"Scale":8728,"chromatography":8729,"∥":8730,"##defined":8731,"Commons":8732,"##aint":8733,"Anti":8734,"viewed":8735,"##TG":8736,"##urable":8737,"##ectious":8738,"##GFR":8739,"judg":8740,"Agr":8741,"beg":8742,"obst":8743,"##atories":8744,"agon":8745,"†":8746,"##word":8747,"##ented":8748,"##life":8749,"ps":8750,"##uncil":8751,"(50":8752,"improves":8753,"configurations":8754,"bring":8755,"88":8756,"##itrate":8757,"4:":8758,"##uv":8759,"2007,":8760,"Compared":8761,"##patient":8762,"decades":8763,"King":8764,"bip":8765,"##WLED":8766,"##ohist":8767,"Altern":8768,"Dat":8769,"galax":8770,"attempts":8771,"flexibility":8772,"fibrob":8773,"Appl":8774,"tel":8775,"modelling":8776,"intact":8777,"markets":8778,"##lined":8779,"invasive":8780,"##journals":8781,"bird":8782,"##texts":8783,"##fact":8784,"##NOWLED":8785,"##atz":8786,"##UND":8787,"##cale":8788,"Bri":8789,"##anches":8790,"##rose":8791,"##ollary":8792,"))":8793,"Off":8794,"##TL":8795,"shear":8796,"##aturally":8797,"passive":8798,"Tra":8799,"malignant":8800,"Os":8801,"protective":8802,"sediment":8803,"verified":8804,"considerably":8805,"averaged":8806,"Wu":8807,"proximal":8808,"macro":8809,"ped":8810,"##59":8811,"##nee":8812,"Exp":8813,"∇":8814,"Future":8815,"##oline":8816,"##imm":8817,"rend":8818,"NaCl":8819,"##aturated":8820,"##∣∣":8821,"densities":8822,"supernat":8823,"wet":8824,"Hep":8825,"marrow":8826,"insu":8827,"abdominal":8828,"connectivity":8829,"stimulated":8830,"5)":8831,"##ora":8832,"formul":8833,"IM":8834,"notice":8835,"tro":8836,"Term":8837,"designs":8838,"angular":8839,"##OX":8840,"caps":8841,"##usp":8842,"offered":8843,"Fre":8844,"##oting":8845,"Ga":8846,"##isch":8847,"raw":8848,"Cambridge":8849,"bin":8850,"OB":8851,"##etz":8852,"radial":8853,"Fourier":8854,"97":8855,"##itudes":8856,"##book":8857,"##Le":8858,"neon":8859,"empty":8860,"##stable":8861,"adapted":8862,"Tel":8863,"##ohy":8864,"NR":8865,"##07":8866,"##rep":8867,"##uan":8868,"incident":8869,"interfaces":8870,"Standard":8871,"ze":8872,"depicted":8873,"reconstruc":8874,"DP":8875,"Fed":8876,"healthcare":8877,"bodies":8878,"##alling":8879,"2001":8880,"hydroly":8881,"hierarchical":8882,"mand":8883,"reveals":8884,"##je":8885,"fold":8886,"symbols":8887,"gastro":8888,"##otin":8889,"arguments":8890,"##–10":8891,"semantics":8892,"##cf":8893,"surprising":8894,"Summ":8895,"locus":8896,"reader":8897,"SY":8898,"quantities":8899,"interfer":8900,"000":8901,"satisfying":8902,"urine":8903,"patch":8904,"##iner":8905,"5.3":8906,"compli":8907,"innovation":8908,"optimum":8909,"defines":8910,"promin":8911,"##=2":8912,"##amilton":8913,"##illance":8914,"lifetime":8915,"ig":8916,"2011,":8917,"##lease":8918,"##icrob":8919,"conform":8920,"merg":8921,"speci":8922,"##iton":8923,"TC":8924,"1996;":8925,"##ena":8926,"threat":8927,"##ami":8928,"##apor":8929,"updated":8930,"placement":8931,"2006,":8932,"incen":8933,"emissions":8934,"determines":8935,"hundred":8936,"verte":8937,"##0.01":8938,"ll":8939,"intu":8940,"LPS":8941,"camp":8942,"TGF":8943,"negatively":8944,"conservation":8945,"##containing":8946,"##arin":8947,"##aved":8948,"fuel":8949,"division":8950,"manual":8951,"Before":8952,"##armaceutical":8953,"phenomena":8954,"[15]":8955,"##economic":8956,"ds":8957,"Performance":8958,"stationary":8959,"##eptide":8960,"110":8961,"dimensional":8962,"##ART":8963,"going":8964,"##ima":8965,"Food":8966,"##ourse":8967,"##-,":8968,"structured":8969,"delivered":8970,"##anta":8971,"employment":8972,"biochemical":8973,"##3],":8974,"##uming":8975,"authentic":8976,"sperm":8977,"##+,":8978,"classifier":8979,"##.5,":8980,"Hyp":8981,"hol":8982,"infil":8983,"institutional":8984,"proposition":8985,"##likely":8986,"impos":8987,"resection":8988,"retention":8989,"PF":8990,"Pred":8991,"references":8992,"##arter":8993,"(14)":8994,"##illin":8995,"##NOWLEDG":8996,"asthma":8997,"fract":8998,"cohe":8999,"schools":9000,"##tral":9001,"##space":9002,"##ilep":9003,"14.":9004,"NY":9005,"HE":9006,"functioning":9007,"Kn":9008,"##itter":9009,"defining":9010,"##habil":9011,"emerging":9012,"redund":9013,"awareness":9014,"##points":9015,"rt":9016,"##uated":9017,"spectroscopy":9018,"##An":9019,"motivation":9020,"hospitals":9021,"NK":9022,"##10,":9023,"##aka":9024,"aggregate":9025,"converted":9026,"analyzing":9027,"ROS":9028,"expert":9029,"comparative":9030,"##omat":9031,"##iang":9032,"Ir":9033,"##otypic":9034,"2005,":9035,"navig":9036,"18,":9037,"##emper":9038,"nucleotide":9039,"substitution":9040,"##wan":9041,"hex":9042,"arrow":9043,"circuits":9044,"##ermal":9045,"metall":9046,"##olin":9047,"stret":9048,"entities":9049,"##/201":9050,"[11].":9051,"##frequency":9052,"cervical":9053,"##pted":9054,"##fort":9055,"##opic":9056,"0.02":9057,"79":9058,"SEM":9059,"Mechan":9060,"##reci":9061,"Therap":9062,"integrity":9063,"83":9064,"fourth":9065,"methylation":9066,"discontinu":9067,"Stre":9068,"pancreatic":9069,"87":9070,"##lux":9071,"Know":9072,"calls":9073,"ACKNOWLEDG":9074,"advance":9075,"MB":9076,"cereb":9077,"incorporated":9078,"emb":9079,"ly":9080,"Sequ":9081,"JA":9082,"purchased":9083,"intensive":9084,"surge":9085,"sinus":9086,"recurrent":9087,"##0.5":9088,"fulf":9089,"PG":9090,"##version":9091,"invasion":9092,"Chemistry":9093,"adolescents":9094,"nM":9095,"Project":9096,"##heres":9097,"assessing":9098,"mask":9099,"board":9100,"customers":9101,"##4/":9102,"##add":9103,"orb":9104,"domestic":9105,"##vation":9106,"shifts":9107,"los":9108,"perman":9109,"##pecific":9110,"17,":9111,"mineral":9112,"Learning":9113,"##cious":9114,"TS":9115,"None":9116,"##ologically":9117,"handle":9118,"##ailed":9119,"##lishing":9120,"##(4)":9121,"##dt":9122,"EV":9123,"Natural":9124,"consumer":9125,"PhD":9126,"consistently":9127,"##’.":9128,"lum":9129,"predictor":9130,"administr":9131,"##ovine":9132,"highlight":9133,"Third":9134,"##adian":9135,"eq":9136,"Within":9137,"##ishing":9138,"muscles":9139,"##ewise":9140,"Sun":9141,"paradigm":9142,"##oder":9143,"##itance":9144,"vag":9145,"machines":9146,"universal":9147,"hidden":9148,"comprom":9149,"contributes":9150,"Ein":9151,"emergency":9152,"##ressed":9153,"##veness":9154,"recovered":9155,"Direct":9156,"proton":9157,"subunit":9158,"forming":9159,"uniformly":9160,"##osh":9161,"guest":9162,"##FR":9163,"Springer":9164,"Creative":9165,"HS":9166,"Aus":9167,"cyl":9168,"secret":9169,"inference":9170,"##uj":9171,"automated":9172,"##enza":9173,"rely":9174,"subsets":9175,"Disease":9176,"Paul":9177,"##arcin":9178,"Besides":9179,"hypotheses":9180,"Rich":9181,"Global":9182,"##09":9183,"##FL":9184,"##omical":9185,"plotted":9186,"##omycin":9187,"younger":9188,"##izoph":9189,"White":9190,"Age":9191,"##onical":9192,"starts":9193,"detecting":9194,"##risk":9195,"recruitment":9196,"mer":9197,"##diff":9198,"[12].":9199,"##7-":9200,"absent":9201,"eV":9202,"##aylor":9203,"Tw":9204,"##oxia":9205,"aid":9206,"ot":9207,"venti":9208,"limiting":9209,"smart":9210,"gi":9211,"volumes":9212,"##draw":9213,"##onch":9214,"socio":9215,"continuously":9216,"multim":9217,"demands":9218,"PB":9219,"lengths":9220,"Imp":9221,"##IO":9222,"##cher":9223,"##pm":9224,"##ito":9225,"+/-":9226,"Gold":9227,"##etherlands":9228,"##GFP":9229,"metastasis":9230,"Graph":9231,"##heum":9232,"absorb":9233,"##unced":9234,"15.":9235,"antim":9236,"71":9237,"93":9238,"##anguage":9239,"Mn":9240,"completion":9241,"Authors":9242,"electrodes":9243,"ubiquit":9244,"(15)":9245,"##oriented":9246,"lies":9247,"##irk":9248,"Phase":9249,"##isti":9250,"persistent":9251,"orders":9252,"il":9253,"instruction":9254,"triple":9255,"ISS":9256,"Expression":9257,"##brane":9258,"##urine":9259,"1990":9260,"vas":9261,"ovari":9262,"##NH":9263,"iterations":9264,"ultrasound":9265,"une":9266,"##yo":9267,"today":9268,"##ticular":9269,"##independent":9270,"##amming":9271,"OP":9272,"fruit":9273,"bleeding":9274,"##oxyl":9275,"unable":9276,"hos":9277,"##:4":9278,"##orous":9279,"##elec":9280,"dimin":9281,"Grant":9282,"performs":9283,"quantified":9284,"fire":9285,"hair":9286,"##obs":9287,"straightforward":9288,"VEGF":9289,"freedom":9290,"Mel":9291,"discussions":9292,"visit":9293,"##TH":9294,"##osynthesis":9295,"curv":9296,"kinetic":9297,"ga":9298,"occas":9299,"raised":9300,"##that":9301,"vehicles":9302,"unlikely":9303,"fluctuations":9304,"##anth":9305,"2012,":9306,"viability":9307,"biology":9308,"Port":9309,"corpor":9310,"prognosis":9311,"Gre":9312,"energies":9313,"1997).":9314,"##press":9315,"DL":9316,"##gens":9317,"##oon":9318,"##squ":9319,"cytokine":9320,"##IDS":9321,"prolonged":9322,"versions":9323,"##non":9324,"mining":9325,"##ashion":9326,"ever":9327,"##onent":9328,"consumers":9329,"86":9330,"logical":9331,"##auf":9332,"106":9333,"##OCK":9334,"aux":9335,"viruses":9336,"argue":9337,"doing":9338,"anth":9339,"30,":9340,"agree":9341,"##labeled":9342,"##Us":9343,"progen":9344,"loci":9345,"strictly":9346,"disapp":9347,"##aspase":9348,"BC":9349,"Council":9350,"neck":9351,"##asia":9352,"manufacturing":9353,"heating":9354,"##pace":9355,"Different":9356,"92":9357,"realistic":9358,"RR":9359,"thyroid":9360,"ONE":9361,"reviews":9362,"historical":9363,"Netherlands":9364,"##Ex":9365,"things":9366,"multivariate":9367,"potentials":9368,"##Gr":9369,"organs":9370,"Wash":9371,"transgenic":9372,"82":9373,"Kar":9374,"LS":9375,"##olytic":9376,"[16]":9377,"rst":9378,"sea":9379,"concurrent":9380,"causal":9381,"funding":9382,"functionality":9383,"dissolved":9384,"##emporal":9385,"##ococc":9386,"undergoing":9387,"subjective":9388,"imply":9389,"nervous":9390,"LP":9391,"visualization":9392,"##urses":9393,"Fisher":9394,"regarded":9395,"eventually":9396,"reserv":9397,"schedule":9398,"sentence":9399,"Mach":9400,"##4],":9401,"Prov":9402,"tension":9403,"neuron":9404,"warm":9405,"dense":9406,"reproductive":9407,"##500":9408,"microbial":9409,"##ulose":9410,"##ige":9411,"urinary":9412,"##ilos":9413,"UN":9414,"##ysts":9415,"bor":9416,"##orbed":9417,"fluorescent":9418,"##abilistic":9419,"##angl":9420,"circumst":9421,"names":9422,"ǫ":9423,"rod":9424,"##arest":9425,"vessel":9426,"circular":9427,"##hene":9428,"##auer":9429,"Ak":9430,"##GR":9431,"destination":9432,"##icient":9433,"Bayesian":9434,"ecosystem":9435,"Life":9436,"closer":9437,"##ael":9438,"SDS":9439,"instant":9440,"GHz":9441,"lap":9442,"probes":9443,"initiated":9444,"organizational":9445,"volati":9446,"vesic":9447,"unless":9448,"overnight":9449,"fitting":9450,"##itus":9451,"##IE":9452,"adsorption":9453,"Us":9454,"89":9455,"Super":9456,"Ψ":9457,"Lic":9458,"collaboration":9459,"##allow":9460,"21,":9461,"##ua":9462,"contexts":9463,"insights":9464,"##ager":9465,"[30":9466,"stiff":9467,"singular":9468,"Gi":9469,"players":9470,"22.":9471,"trauma":9472,"AV":9473,"##phone":9474,"##AMP":9475,"realized":9476,"EU":9477,"ppm":9478,"2004,":9479,"casc":9480,"flav":9481,"##omorphic":9482,"##Ag":9483,"supplemented":9484,"send":9485,"##3(":9486,"##omething":9487,"saturation":9488,"##ymmet":9489,"1995;":9490,"ellip":9491,"##cutaneous":9492,"progressive":9493,"##-1)":9494,"discrimination":9495,"##IVE":9496,"##110":9497,"thesis":9498,"Clear":9499,"sie":9500,"Hyper":9501,"##making":9502,"try":9503,"##izophren":9504,"scene":9505,"reflection":9506,"constrained":9507,"searc":9508,"Physiol":9509,"##pan":9510,"unex":9511,"webs":9512,"hydrox":9513,"##rosine":9514,"transfected":9515,"##including":9516,"ongoing":9517,"Dan":9518,"##erman":9519,"##inement":9520,"orthogonal":9521,"##ald":9522,"synaptic":9523,"acoustic":9524,"##artments":9525,"##uthor":9526,"Computing":9527,"##aque":9528,"##ylated":9529,"incons":9530,"sel":9531,"neglig":9532,"Consid":9533,"neutroph":9534,"##cation":9535,"Pot":9536,"Tor":9537,"##||":9538,"GM":9539,"OH":9540,"ff":9541,"studying":9542,"##ación":9543,"cumulative":9544,"RN":9545,"diagonal":9546,"Downloaded":9547,"CG":9548,"##DE":9549,"##.00":9550,"focal":9551,"soluble":9552,"eryth":9553,"diges":9554,"##aline":9555,"discovered":9556,"##dec":9557,"accompanied":9558,"epidemi":9559,"momentum":9560,"(−":9561,"##IH":9562,"##po":9563,"fashion":9564,"naturally":9565,"##idel":9566,"son":9567,"David":9568,"focuses":9569,"2008.":9570,"##prise":9571,"##supp":9572,"Background":9573,"##1371/":9574,"conserv":9575,"ordered":9576,"Ts":9577,"##emy":9578,"Environmental":9579,"lag":9580,"prototype":9581,"##.200":9582,"CK":9583,"##wood":9584,"impedance":9585,"Ci":9586,"Applied":9587,"guarantee":9588,"Indian":9589,"entity":9590,"##owel":9591,"infusion":9592,"clinic":9593,"aging":9594,"##omorphism":9595,"10.10":9596,"##ublic":9597,"##chlor":9598,"##aton":9599,"##otr":9600,"[13].":9601,"Hamilton":9602,"learned":9603,"##gt":9604,"instruments":9605,"complementary":9606,"custom":9607,"obtaining":9608,"##Wh":9609,"inh":9610,"##4:":9611,"##print":9612,"Roy":9613,"6).":9614,"kinetics":9615,"##azole":9616,"pathogenesis":9617,"##ei":9618,"##ensis":9619,"Ly":9620,"trop":9621,"##ameters":9622,"az":9623,"##vo":9624,"##enes":9625,"credit":9626,"deviations":9627,"81":9628,"Mur":9629,"##entis":9630,"instability":9631,"##orec":9632,"##gluc":9633,"charged":9634,"protected":9635,"30.":9636,"##icrobial":9637,"Organization":9638,"consult":9639,"180":9640,"gauge":9641,"##oni":9642,"##tish":9643,"manage":9644,"beliefs":9645,"##.2,":9646,"Unfortunately":9647,"(196":9648,"physician":9649,"2009.":9650,"CYP":9651,"##uster":9652,"Heart":9653,"standardized":9654,"##otoxicity":9655,"bars":9656,"##lements":9657,"accounts":9658,"benz":9659,"Level":9660,"Children":9661,"##amate":9662,"concentrated":9663,"operate":9664,"##ifiers":9665,"Again":9666,"mammalian":9667,"potent":9668,"vein":9669,"copper":9670,"reward":9671,"Water":9672,"##pH":9673,"labels":9674,"2007.":9675,"19,":9676,"rever":9677,"blind":9678,"permits":9679,"experimentally":9680,"##gene":9681,"corrected":9682,"fibrosis":9683,"elevation":9684,"##enses":9685,"##ectin":9686,"##otoxic":9687,"##sip":9688,"Π":9689,"covariance":9690,"expectations":9691,"##kins":9692,"##elfare":9693,"helps":9694,"named":9695,"(1−":9696,"Hel":9697,"25.":9698,"provision":9699,"athe":9700,"Simulation":9701,"experts":9702,"##spr":9703,"##∗(":9704,"recognize":9705,"##inator":9706,"familiar":9707,"##oglobin":9708,"##opsis":9709,"7.4":9710,"discl":9711,"##oren":9712,"2010.":9713,"catalytic":9714,"deformation":9715,"##opulation":9716,"##lot":9717,"##hydr":9718,"80%":9719,"cis":9720,"Assume":9721,"poorly":9722,"91":9723,"##lings":9724,"##cn":9725,"##advant":9726,"spot":9727,"([":9728,"##-2-":9729,"aortic":9730,"Markov":9731,"interviews":9732,"[17]":9733,"1.6":9734,"2014).":9735,"Acknowledgments":9736,"Ur":9737,"worse":9738,"believed":9739,"eluc":9740,"truth":9741,"aware":9742,"##dy":9743,"##agg":9744,"Professor":9745,"30%":9746,"##WT":9747,"Applications":9748,"##del":9749,"electrom":9750,"ligands":9751,"mothers":9752,"Any":9753,"##vised":9754,"##8-":9755,"2003,":9756,"##regular":9757,"##atigue":9758,"2006.":9759,"##sten":9760,"competing":9761,"(2.1":9762,"bonds":9763,"##0/":9764,"##uro":9765,"wie":9766,"default":9767,"##month":9768,"meeting":9769,"SNR":9770,"##′(":9771,"##...,":9772,"Sy":9773,"simplicity":9774,"##)),":9775,"##BF":9776,"excit":9777,"morbidity":9778,"Estim":9779,"presum":9780,"something":9781,"##house":9782,"AI":9783,"recover":9784,"ends":9785,"labeling":9786,"faces":9787,"entries":9788,"verification":9789,"filtered":9790,"2005.":9791,"##loop":9792,"estimating":9793,"facial":9794,"limb":9795,"robustness":9796,"transpor":9797,"secure":9798,"##ographical":9799,"##-200":9800,"react":9801,"##-1-":9802,"Report":9803,"##,,":9804,"Figs":9805,"considerations":9806,"barriers":9807,"ND":9808,"employees":9809,"blocked":9810,"inserted":9811,"gradually":9812,"##gov":9813,"##writ":9814,"ACS":9815,"16.":9816,"genotypes":9817,"##culosis":9818,"prognostic":9819,"1]":9820,"polymerase":9821,"plans":9822,"1999":9823,"##acle":9824,"Bus":9825,"protect":9826,"Korea":9827,"isot":9828,"##EMENT":9829,"##onomy":9830,"##brevi":9831,"therapies":9832,"##recip":9833,"guidance":9834,"##hard":9835,"childhood":9836,"##ulence":9837,"tu":9838,"compensation":9839,"##ynamics":9840,"antioxidant":9841,"GFP":9842,"##iaz":9843,"##olysis":9844,"VOL":9845,"sustained":9846,"##teen":9847,"privacy":9848,"Local":9849,"gir":9850,"LD":9851,"seiz":9852,"Multiple":9853,"Camp":9854,"##eme":9855,"##oscopic":9856,"Medi":9857,"wood":9858,"##GL":9859,"##JECT":9860,"resolved":9861,"anticip":9862,"[14].":9863,"intravenous":9864,"##ograms":9865,"reality":9866,"smallest":9867,"##hend":9868,"ben":9869,"##idin":9870,"irradiation":9871,"##plo":9872,"##UM":9873,"##rared":9874,"impossible":9875,"retro":9876,"##forming":9877,"##hm":9878,"tendency":9879,"##gestion":9880,"texture":9881,"wt":9882,"Japanese":9883,"##itely":9884,"##cre":9885,"##\",":9886,"##driven":9887,"bovine":9888,"Real":9889,"Rn":9890,"(0)":9891,"##cap":9892,"(16)":9893,"Fil":9894,"discrep":9895,"Pur":9896,"diffr":9897,"##ATA":9898,"coc":9899,"ambigu":9900,"gains":9901,"##rophic":9902,"##mitt":9903,"exhibits":9904,"##-15":9905,"5:":9906,"rm":9907,"PET":9908,"abuse":9909,"22,":9910,"90%":9911,"Pt":9912,"##−1(":9913,"tables":9914,"##herical":9915,"blocking":9916,"precipitation":9917,"intensi":9918,"1996).":9919,"skeletal":9920,"greatest":9921,"Aff":9922,"Lik":9923,"extensively":9924,"##ulse":9925,"Rus":9926,"Lab":9927,"Cyt":9928,"ei":9929,"applies":9930,"clones":9931,"acting":9932,"trajectories":9933,"executed":9934,"chip":9935,"##sur":9936,"bilateral":9937,"deter":9938,"demographic":9939,"Quality":9940,"transcripts":9941,"examining":9942,"((":9943,"25,":9944,"FIG":9945,"##length":9946,"chance":9947,"##utch":9948,"knee":9949,"Lou":9950,"spent":9951,"mapped":9952,"pathology":9953,"sparse":9954,"expensive":9955,"##ococcus":9956,"##trict":9957,"##nov":9958,"scalar":9959,"lex":9960,"grap":9961,"##actin":9962,"##ubic":9963,"encoded":9964,"Brain":9965,"23.":9966,"GS":9967,"##enden":9968,"##room":9969,"##7:":9970,"##oscopy":9971,"cleavage":9972,"##box":9973,"handling":9974,"##acco":9975,"24,":9976,"queue":9977,"cited":9978,"alleles":9979,"GO":9980,"aspir":9981,"Du":9982,"Mad":9983,"##ocrine":9984,"##vestig":9985,"##sche":9986,"Wat":9987,"##GP":9988,"nutrient":9989,"##ados":9990,"diluted":9991,"##RD":9992,"ovarian":9993,"surveys":9994,"graft":9995,"##week":9996,"easier":9997,"##aden":9998,"##tructural":9999,"ˆ":10000,"dorsal":10001,"lacking":10002,"##ceptual":10003,"Conc":10004,"ages":10005,"Hand":10006,"presenting":10007,"transaction":10008,"addresses":10009,"attitudes":10010,"##imination":10011,"##ymer":10012,"games":10013,"individ":10014,"##.01":10015,"communications":10016,"mor":10017,"##CN":10018,"Pen":10019,"cyclic":10020,"Ben":10021,"Prac":10022,"##habilitation":10023,"displays":10024,"##rous":10025,"%)":10026,"TT":10027,"catheter":10028,"##+1,":10029,"adopt":10030,"1–":10031,"##venue":10032,"predictors":10033,"eliminate":10034,"closure":10035,"Six":10036,"||":10037,"2015;":10038,"2),":10039,"CPU":10040,"##ovirus":10041,"2004.":10042,"anne":10043,"##norm":10044,"quasi":10045,"##riched":10046,"chapter":10047,"overexpression":10048,"amplified":10049,"valve":10050,"##protein":10051,"Washington":10052,"##luorescence":10053,"##HI":10054,"focusing":10055,"Epid":10056,"profit":10057,"ontology":10058,"metabolites":10059,"##vin":10060,"Jac":10061,"pathological":10062,"##)=":10063,"##unte":10064,"##resistant":10065,"Franc":10066,"##uced":10067,"putative":10068,"cues":10069,"7.5":10070,"##/$":10071,"##arian":10072,"detectable":10073,"began":10074,"fixation":10075,"Ill":10076,"##iology":10077,"MMP":10078,"##rency":10079,"##,2":10080,"offset":10081,"EF":10082,"cooling":10083,"expanded":10084,"##ogly":10085,"Coun":10086,"substance":10087,"##pot":10088,"necrosis":10089,"Risk":10090,"Rad":10091,"equipped":10092,"injuries":10093,"##6],":10094,"0.000":10095,"yielded":10096,"plasm":10097,"##sectional":10098,"##osine":10099,"hierarchy":10100,"##obil":10101,"##tors":10102,"tomography":10103,"##arding":10104,"pilot":10105,"silicon":10106,"characters":10107,"bronch":10108,"compatible":10109,"Calc":10110,"served":10111,"terr":10112,"looking":10113,"24.":10114,"logistic":10115,"larv":10116,"ity":10117,"##uited":10118,"upstream":10119,"##lers":10120,"dental":10121,"retinal":10122,"player":10123,"places":10124,"topics":10125,"art":10126,"LT":10127,"mim":10128,"##-20":10129,"vacuum":10130,"interactive":10131,"##.15":10132,"Surgery":10133,"##romatic":10134,"##vasive":10135,"dispers":10136,"##xx":10137,"interconn":10138,"##knowledge":10139,"selecting":10140,"##-201":10141,"worst":10142,"asc":10143,"inhibits":10144,"##iffiffiffiff":10145,"##++":10146,"Hall":10147,"##opol":10148,"##<0.0":10149,"##PSS":10150,"##exp":10151,"##tized":10152,"##pread":10153,"metastatic":10154,"##:3":10155,"belonging":10156,"Considering":10157,"##ja":10158,"##ashi":10159,"##beit":10160,"landsc":10161,"buff":10162,"##5],":10163,"[18]":10164,"##plicate":10165,"##roscl":10166,"City":10167,"iterative":10168,"##high":10169,"appreci":10170,"FT":10171,"entirely":10172,"0.03":10173,"Abstract":10174,"encryp":10175,",,":10176,"sand":10177,"Nov":10178,"cas":10179,"##linked":10180,"TO":10181,"consequently":10182,"retrospective":10183,"##ilateral":10184,"Physical":10185,"##aryn":10186,"##atase":10187,"[15].":10188,"estimator":10189,"##GRO":10190,"##processing":10191,"(17)":10192,"sides":10193,"prominent":10194,"##oclonal":10195,"##intestinal":10196,"978":10197,"lymphocytes":10198,"##ulsion":10199,"drain":10200,"MV":10201,"desirable":10202,"carrying":10203,"hypothesized":10204,"##otechnology":10205,"unf":10206,"disadvant":10207,"##anner":10208,"submitted":10209,"permit":10210,"sep":10211,"##array":10212,"##oresis":10213,"Young":10214,"goes":10215,"2000,":10216,"02":10217,"platelet":10218,"quantify":10219,"##.12":10220,"predominantly":10221,"ber":10222,"##/3":10223,"glyc":10224,"##Ti":10225,"electrons":10226,"##tructures":10227,"//":10228,"arrays":10229,"(2005)":10230,"Import":10231,"(2006)":10232,"relig":10233,"##ogether":10234,"compliance":10235,"Corresponding":10236,"1994;":10237,"acceleration":10238,"##MRI":10239,"##Li":10240,"##.(":10241,"1.8":10242,"Williams":10243,"Wol":10244,"Top":10245,"deaths":10246,"##)}":10247,"revers":10248,"##SN":10249,"harmonic":10250,"century":10251,"##while":10252,"cc":10253,"##ritic":10254,"lemma":10255,"2013,":10256,"##resolution":10257,"##GB":10258,"##endit":10259,"inher":10260,"phone":10261,"##transfer":10262,"23,":10263,"rice":10264,"master":10265,"antibiotic":10266,"acceler":10267,"Lip":10268,"##orectal":10269,"abundant":10270,"choosing":10271,"serial":10272,"IGF":10273,"predicting":10274,"Brief":10275,"depletion":10276,"2002,":10277,"Tech":10278,"##ducing":10279,"surveillance":10280,"##inate":10281,"Intr":10282,"##jug":10283,"DES":10284,"##lective":10285,"quadratic":10286,"Math":10287,"##4+":10288,"125":10289,"intersection":10290,"triv":10291,"1998":10292,"##entists":10293,"fear":10294,"restrictions":10295,"##wave":10296,"Services":10297,"acetate":10298,"##DT":10299,"##arcom":10300,"inspec":10301,"tensor":10302,"##RL":10303,"104":10304,"claims":10305,"roughly":10306,"−0.":10307,"haem":10308,"partner":10309,"STAT":10310,"negligible":10311,"Taylor":10312,"achieving":10313,"adver":10314,"loaded":10315,"penal":10316,"untreated":10317,"susceptible":10318,"returned":10319,"battery":10320,"statements":10321,"##angi":10322,"insurance":10323,"##01,":10324,"biof":10325,"##tw":10326,"tang":10327,"gut":10328,"##ommod":10329,"Mid":10330,"##usively":10331,"##plane":10332,"conductivity":10333,"aqu":10334,"2003.":10335,"TLR":10336,"##tise":10337,"##rane":10338,"exploration":10339,"race":10340,"trunc":10341,"##oler":10342,"meaningful":10343,"centre":10344,"western":10345,"##lab":10346,"2%":10347,"DT":10348,"##)+":10349,"##ologist":10350,"hr":10351,"transformations":10352,"envelop":10353,"ordering":10354,"Digital":10355,"recon":10356,"3.0":10357,"virt":10358,"yellow":10359,"forecast":10360,"reaches":10361,"Assessment":10362,"Correspondence":10363,"##idespread":10364,"(12":10365,"reaching":10366,"bright":10367,"##retion":10368,"##zes":10369,"BACK":10370,"Hg":10371,"oriented":10372,"Problem":10373,"ker":10374,"##anine":10375,"##core":10376,"##ohydr":10377,"##La":10378,"argued":10379,"nurses":10380,"bad":10381,"moves":10382,"grain":10383,"demonstrating":10384,"AK":10385,"TF":10386,"##arith":10387,"##idae":10388,"2011.":10389,"filled":10390,"##osal":10391,"##has":10392,"Animal":10393,"##osterone":10394,"schizophren":10395,"##otides":10396,"attractive":10397,"##zyme":10398,"mitochondria":10399,"##enen":10400,"withdraw":10401,"(2007)":10402,"hole":10403,"curvature":10404,"##gs":10405,"(2008)":10406,"##through":10407,"rarely":10408,"dilution":10409,"satellite":10410,"photo":10411,"Land":10412,"##OLOG":10413,"phon":10414,"relay":10415,"##rite":10416,"8-":10417,"##controlled":10418,"##entation":10419,"##siveness":10420,"nursing":10421,"hapl":10422,"##cks":10423,"carefully":10424,"Gener":10425,"facility":10426,"EL":10427,"0.04":10428,"concrete":10429,"##icking":10430,"Brown":10431,"Corollary":10432,"##obile":10433,"incomplete":10434,"tends":10435,"MOD":10436,"kDa":10437,"##/~":10438,"dy":10439,"Da":10440,"##iculture":10441,"disturbance":10442,"Analy":10443,"equivalence":10444,"dried":10445,"##domain":10446,"##aped":10447,"additive":10448,"clients":10449,"becoming":10450,"antibiotics":10451,"pseudo":10452,"seeds":10453,"geomet":10454,"##Os":10455,"pulses":10456,"NT":10457,"##dose":10458,"mitig":10459,"##PH":10460,"rabbit":10461,"converter":10462,"parental":10463,"Lag":10464,"ischemia":10465,"MN":10466,"undert":10467,"##illus":10468,"##pressing":10469,"##isson":10470,"acceptance":10471,"Electron":10472,"stars":10473,"##ulos":10474,"##illa":10475,"German":10476,"##ophila":10477,"intrac":10478,"precursor":10479,"caro":10480,"REF":10481,"HO":10482,"Early":10483,"##syn":10484,"(2004)":10485,"##pone":10486,"calculating":10487,"##(1−":10488,"##7],":10489,"Java":10490,"rectang":10491,"128":10492,"genus":10493,"##GROUND":10494,"##mentioned":10495,"(18)":10496,"Vers":10497,"laws":10498,"Division":10499,"emotion":10500,"5.4":10501,"fro":10502,"replace":10503,"10−":10504,"##0000":10505,"syst":10506,"##erer":10507,"Polic":10508,"manipulation":10509,"recombination":10510,"##oir":10511,"Processing":10512,"##bp":10513,"partly":10514,"[16].":10515,"combine":10516,"Available":10517,"##power":10518,"Est":10519,"East":10520,"moist":10521,"permanent":10522,"##ör":10523,"##He":10524,"##1.0":10525,"pathogen":10526,"Ang":10527,"##.13":10528,"Tok":10529,"Optim":10530,"(2009)":10531,"ultimately":10532,"treating":10533,"branches":10534,"##real":10535,"hip":10536,"Hi":10537,"circumstances":10538,"practition":10539,"sharp":10540,"##lichen":10541,"1995).":10542,"Faculty":10543,"masses":10544,"canonical":10545,"bladder":10546,"Ka":10547,"##fil":10548,"symptom":10549,"##arth":10550,"##11,":10551,"##acic":10552,"recruited":10553,"torque":10554,"Summary":10555,"elucid":10556,"synchronization":10557,"##uron":10558,"LR":10559,"##-17":10560,"##EST":10561,"BACKGROUND":10562,"Industr":10563,"##ned":10564,"2000.":10565,"5.5":10566,"##arvest":10567,"perp":10568,"MF":10569,"0;":10570,"Ges":10571,"proj":10572,"##ALS":10573,"mism":10574,"quantification":10575,"Ger":10576,"modify":10577,"contrac":10578,"##pred":10579,"AMP":10580,"agricultural":10581,"pore":10582,"reads":10583,"originally":10584,"probabilistic":10585,"Universit":10586,"heuristic":10587,"##sign":10588,"pneumonia":10589,"##ires":10590,"MG":10591,"Flow":10592,"##ronti":10593,"##forcement":10594,"really":10595,"mutual":10596,"enrich":10597,"colour":10598,"2002.":10599,"##edy":10600,"##lock":10601,"Eur":10602,"##mb":10603,"##entia":10604,"distortion":10605,"emphasis":10606,"##–6":10607,"neph":10608,"mere":10609,"exogenous":10610,"wurde":10611,"##pectives":10612,"##ometri":10613,"manager":10614,"[19]":10615,"delays":10616,"opening":10617,"trait":10618,"Tex":10619,"##tub":10620,"##UD":10621,"##UV":10622,"je":10623,"nc":10624,"##lines":10625,"pointed":10626,"EEG":10627,"harves":10628,"##ABLE":10629,"Θ":10630,"widespread":10631,"dominated":10632,"##fficiency":10633,"##isen":10634,"suppose":10635,"ART":10636,"##ios":10637,"Numer":10638,"##ERS":10639,"activate":10640,"[2,":10641,"habitat":10642,"##clin":10643,"department":10644,"simplified":10645,"Monte":10646,"LE":10647,"EA":10648,"stratif":10649,"##omon":10650,"lingu":10651,"ee":10652,"specify":10653,"(2003)":10654,"attachment":10655,"3(":10656,"ischemic":10657,"Alex":10658,"belongs":10659,"physics":10660,"##light":10661,"##iden":10662,"discipl":10663,"prono":10664,"##lam":10665,"medial":10666,"fatigue":10667,"Johnson":10668,"atmosphere":10669,"##ativity":10670,"briefly":10671,"Main":10672,"##erving":10673,"prime":10674,"leave":10675,"2012.":10676,"managed":10677,"##12,":10678,"certif":10679,"managers":10680,"##itzer":10681,"Full":10682,"##oxin":10683,"ammon":10684,"2001,":10685,"PLOS":10686,"##iatry":10687,"asymptotic":10688,"gland":10689,"monol":10690,"thresholds":10691,"##assium":10692,"##ESS":10693,"26.":10694,"##case":10695,"##ostasis":10696,"DF":10697,"Sam":10698,"hybridization":10699,"ecological":10700,"##<0.00":10701,"accommod":10702,"Detection":10703,"##Na":10704,"-2":10705,"##cipl":10706,"##WS":10707,"covers":10708,"volunte":10709,"infarction":10710,"##itoneal":10711,"anis":10712,"contrary":10713,"800":10714,"suppressed":10715,"18.":10716,"corpus":10717,"Structure":10718,"##:2":10719,"Spain":10720,"##300":10721,"##ocol":10722,"posi":10723,"GAB":10724,"##atio":10725,"orbit":10726,"elsewhere":10727,"auditory":10728,"##Pr":10729,"soon":10730,"span":10731,"sun":10732,"0.05).":10733,"deterministic":10734,"##odal":10735,"opinion":10736,"gray":10737,"households":10738,"##umber":10739,"chloride":10740,"Tai":10741,"pronounced":10742,"scaff":10743,"asser":10744,"##gered":10745,"circle":10746,"tur":10747,"##EREN":10748,"Cross":10749,"##ende":10750,"##poration":10751,"##.3,":10752,"dogs":10753,"##mes":10754,"Esc":10755,"Abb":10756,"decided":10757,"implicated":10758,"simulate":10759,"##INE":10760,"expendit":10761,"British":10762,"covering":10763,"##ophage":10764,"##lar":10765,"frontal":10766,"passed":10767,"stiffness":10768,"membership":10769,"##ried":10770,"ELI":10771,"neighbors":10772,"chest":10773,"collision":10774,"##orbid":10775,"##ahr":10776,"TG":10777,"overlapping":10778,"HLA":10779,"ambient":10780,"##stim":10781,"thinking":10782,"##ville":10783,"Genetic":10784,"Impro":10785,"unstable":10786,"##bility":10787,"hepatitis":10788,"##eur":10789,"professionals":10790,"##Hg":10791,"university":10792,"circulation":10793,"##ensitivity":10794,"SK":10795,"Yu":10796,"Fer":10797,"##‖2":10798,"##holders":10799,"##oblast":10800,"Tak":10801,"superf":10802,"serves":10803,"##hex":10804,"Martin":10805,"##mut":10806,"ratings":10807,"econom":10808,"visits":10809,"##Ga":10810,"emerged":10811,"##istor":10812,"elong":10813,"linearly":10814,"Cost":10815,"Random":10816,"LM":10817,"1/2":10818,"##athy":10819,"shapes":10820,"maximize":10821,"introducing":10822,"cortic":10823,"##valu":10824,"talk":10825,"servers":10826,"Normal":10827,"confound":10828,"turns":10829,"##.3%":10830,"Single":10831,"ISSN":10832,"accounted":10833,"exclusion":10834,"Dom":10835,"brought":10836,"ba":10837,"6)":10838,"PAR":10839,"Mut":10840,"Inv":10841,"Clearly":10842,"BLOCK":10843,"implementing":10844,"##emperature":10845,"border":10846,"peroxid":10847,"sentences":10848,"##model":10849,"elig":10850,"caspase":10851,"arrival":10852,"gramm":10853,"##tricted":10854,"##-2,":10855,"venous":10856,"advances":10857,"tubes":10858,"immunity":10859,"wavelet":10860,"(2010)":10861,"evid":10862,"Student":10863,"##olecular":10864,"died":10865,"ges":10866,"Self":10867,"Tris":10868,"##lein":10869,"##static":10870,"intention":10871,"##loc":10872,"preventing":10873,"SB":10874,"supers":10875,"##natal":10876,"##html":10877,"axial":10878,"##bu":10879,"CX":10880,"##::":10881,"processors":10882,"##layer":10883,"[17].":10884,"##factor":10885,"Psychology":10886,"money":10887,"airway":10888,"ip":10889,"walking":10890,"##employ":10891,"−→":10892,"union":10893,"Tables":10894,"Application":10895,"0.15":10896,"Determ":10897,"cooperation":10898,"tio":10899,"##pdf":10900,"unres":10901,"##((":10902,"adoption":10903,"collect":10904,"⋅":10905,"coating":10906,"indication":10907,"Networks":10908,"##.14":10909,"1993;":10910,"##ozygous":10911,"##AV":10912,"rhyth":10913,"License":10914,"Govern":10915,"Schw":10916,"possibilities":10917,"decade":10918,"Cong":10919,"aligned":10920,"Physics":10921,"permeability":10922,"##–12":10923,"Tim":10924,"expectation":10925,"differentiated":10926,"Ministry":10927,"accessible":10928,"JM":10929,"thym":10930,"technological":10931,"jump":10932,"##-13":10933,"phyt":10934,"healing":10935,"##opl":10936,"4.0":10937,"workload":10938,"##elli":10939,"elimination":10940,"mV":10941,"cry":10942,"DN":10943,"markedly":10944,"##ministration":10945,"Behavior":10946,"Ques":10947,"pediatric":10948,"differs":10949,"Academy":10950,"##arged":10951,"paired":10952,"contributing":10953,"##opy":10954,"gamma":10955,"feasibility":10956,"siRNA":10957,"##system":10958,"HCV":10959,"clearance":10960,"##only":10961,"epilep":10962,"nominal":10963,"##ivil":10964,"phr":10965,"3.1.":10966,"28.":10967,"sure":10968,"spring":10969,"circulating":10970,"Asian":10971,"loads":10972,"keeping":10973,"relies":10974,"##my":10975,"Technologies":10976,"Online":10977,"Sigma":10978,"antimicrobial":10979,"grate":10980,"##NK":10981,"assist":10982,"##heim":10983,"tradition":10984,"leakage":10985,"cytoplasmic":10986,"Small":10987,"⊕":10988,"##6:":10989,"Unlike":10990,"accounting":10991,"(2001)":10992,"2001.":10993,"Investig":10994,"ELISA":10995,"##ports":10996,"Thomas":10997,"NAD":10998,"fitted":10999,"##ocytosis":11000,"monoclonal":11001,"adm":11002,"##+2":11003,"polymorphism":11004,"jobs":11005,"contamin":11006,"slot":11007,"##iert":11008,"disability":11009,"coast":11010,"junction":11011,"neurological":11012,"anch":11013,"hazard":11014,"##hydroxy":11015,"##target":11016,"bases":11017,"River":11018,"##omit":11019,"unchanged":11020,"40%":11021,"Survey":11022,"shell":11023,"##agm":11024,"pathogens":11025,"Yes":11026,"##phthal":11027,"##rang":11028,"##/6":11029,"McC":11030,"##tributed":11031,"funded":11032,"neoplas":11033,"##Sigma":11034,"27.":11035,"##ique":11036,"hearing":11037,"0.05)":11038,"ef":11039,"style":11040,"##osure":11041,"##board":11042,"##ih":11043,"music":11044,"embryonic":11045,"Das":11046,"chick":11047,"larvae":11048,"##spring":11049,"binds":11050,"##being":11051,"Visual":11052,"contraction":11053,"Pap":11054,"copyright":11055,"##ivariate":11056,"GH":11057,"##8],":11058,"medications":11059,"(3.1":11060,"worldwide":11061,"lumin":11062,"ib":11063,"collaborative":11064,"##Gs":11065,"6.2":11066,"calibr":11067,"fif":11068,"decide":11069,"night":11070,"##deficient":11071,"assessments":11072,"Evidence":11073,"HM":11074,"##ilosoph":11075,"vegetation":11076,"ren":11077,"rigid":11078,"budget":11079,"provider":11080,"myc":11081,"party":11082,"specifications":11083,"NM":11084,"vital":11085,"VL":11086,"participated":11087,"failures":11088,"##parent":11089,"latent":11090,"phylogenetic":11091,"methanol":11092,"Acta":11093,"##ensed":11094,"perturbation":11095,"fertil":11096,"receives":11097,"albumin":11098,"pac":11099,"tot":11100,"cu":11101,"phenotypes":11102,"victim":11103,"specimen":11104,"residents":11105,"##aceae":11106,"##:1":11107,"←":11108,"##appro":11109,"pit":11110,"chemistry":11111,"##nec":11112,"scler":11113,"responsibility":11114,"##dem":11115,"amyl":11116,"uniqu":11117,"tyrosine":11118,"birds":11119,"considers":11120,"alternatives":11121,"marine":11122,"homogen":11123,"promotes":11124,"retained":11125,"Knowledge":11126,"Err":11127,"̃":11128,"2.1.":11129,"stake":11130,"designing":11131,"contamination":11132,"##benz":11133,"##du":11134,"resc":11135,"##immune":11136,"##No":11137,"Accordingly":11138,"##Ver":11139,"regeneration":11140,"MW":11141,"slowly":11142,"viable":11143,"##sensitive":11144,"−2":11145,"descriptions":11146,"checked":11147,"univer":11148,"constitute":11149,"continues":11150,"pup":11151,"TCP":11152,"conflicts":11153,"optimize":11154,"Huang":11155,"follic":11156,"whenever":11157,"dye":11158,"arising":11159,"##ny":11160,"##±0.":11161,"##steine":11162,"diffuse":11163,"##ät":11164,"Natl":11165,"##thing":11166,"Ve":11167,"##MSO":11168,"Mus":11169,"goods":11170,"##itated":11171,"##iae":11172,"Cer":11173,"OBJECT":11174,"zinc":11175,"Mex":11176,"140":11177,"Sep":11178,"assumes":11179,"##liers":11180,"photon":11181,"adherence":11182,"Bank":11183,"##otrans":11184,"##ians":11185,"##levant":11186,"##pin":11187,"lam":11188,"inferior":11189,"fractures":11190,"spherical":11191,"##ountered":11192,"exclusively":11193,"##-11":11194,"##onomous":11195,"[18].":11196,"solely":11197,"##ropri":11198,"arises":11199,"(19)":11200,"##.16":11201,"##DD":11202,"strategic":11203,"##usting":11204,"driver":11205,"French":11206,"scans":11207,"War":11208,"SNPs":11209,"nearest":11210,"nit":11211,"DH":11212,"##acking":11213,"substances":11214,"(15":11215,"##vity":11216,"(2002)":11217,"lib":11218,"evaluations":11219,"6:":11220,"welfare":11221,"audio":11222,"correlate":11223,"zones":11224,"2014,":11225,"registration":11226,"##.3.":11227,"antigens":11228,"##icits":11229,"Language":11230,"##metic":11231,"##ias":11232,"differed":11233,"insufficient":11234,"##uvant":11235,"contro":11236,"##ATT":11237,"sphere":11238,"stations":11239,"loops":11240,"Yet":11241,"summer":11242,"##yan":11243,"immunos":11244,"distinction":11245,"moved":11246,"coherent":11247,"##onymous":11248,"regulating":11249,"eigenvalues":11250,"##itol":11251,"Metab":11252,"BLOCKIN":11253,"Surg":11254,"command":11255,"Phot":11256,"ak":11257,"##isis":11258,"hemorrh":11259,"2013.":11260,"[20]":11261,"dot":11262,"##ymal":11263,"supra":11264,"influenza":11265,"planar":11266,"contacts":11267,"supernatant":11268,"##RF":11269,"negoti":11270,"encountered":11271,"##glut":11272,"Good":11273,"##Sm":11274,"0.0001":11275,"##aud":11276,"##→∞":11277,"dielectric":11278,"immunohist":11279,"FE":11280,"Unit":11281,"##atit":11282,"individually":11283,"breath":11284,"##(−":11285,"##idopsis":11286,"ranking":11287,"##rontiers":11288,"##hydrogen":11289,"##world":11290,"##ulti":11291,"interle":11292,"(1).":11293,"enrolled":11294,"outper":11295,"metals":11296,"consumed":11297,"Ko":11298,"##ilarities":11299,"##types":11300,"neighboring":11301,"DB":11302,"earth":11303,"transverse":11304,"Individual":11305,"∅":11306,"1.7":11307,"Pac":11308,"MAC":11309,"aggressive":11310,"##ete":11311,"##yclic":11312,"Primary":11313,"##ibraries":11314,"excessive":11315,"Whe":11316,"##cs":11317,"flood":11318,"murine":11319,"##antitative":11320,"##hre":11321,"##pect":11322,"odd":11323,"##rosophila":11324,"ethical":11325,"graf":11326,"Prior":11327,"nond":11328,"19.":11329,"einem":11330,"mirr":11331,"enabled":11332,"balanced":11333,"##-01":11334,"Kal":11335,"Condition":11336,"crystals":11337,"7.2":11338,"exhaus":11339,"onc":11340,"##ensing":11341,"chose":11342,"##asonal":11343,"highlighted":11344,"##Cor":11345,"##play":11346,"##uchi":11347,"woman":11348,"infectious":11349,"creates":11350,"win":11351,"Field":11352,"comprised":11353,"manually":11354,"[3,":11355,"dab":11356,"##Uni":11357,"##–7":11358,"##umab":11359,"Hong":11360,"Ren":11361,"fibroblasts":11362,"##win":11363,"shad":11364,"Oh":11365,"Instr":11366,"##ysiology":11367,"interacting":11368,"schizophrenia":11369,"removing":11370,"programme":11371,"##olars":11372,"Vor":11373,"##uer":11374,"##place":11375,"##ATP":11376,"##tur":11377,"hypoxia":11378,"melanoma":11379,"wel":11380,"odds":11381,"##|2":11382,"##icious":11383,"obese":11384,"tuberculosis":11385,"##eyer":11386,"##-3-":11387,"banks":11388,"Therm":11389,"{1,":11390,"##mp":11391,"##vable":11392,"thorough":11393,"wider":11394,"disj":11395,"##tructive":11396,"VA":11397,"harvested":11398,"buy":11399,"teacher":11400,"Evolution":11401,"infant":11402,"##thetic":11403,"divergence":11404,"Neuro":11405,"##heimer":11406,"Et":11407,"linkage":11408,"Michael":11409,"Xu":11410,"##-18":11411,"reductions":11412,"autophag":11413,"Bern":11414,"(2000)":11415,"vaccination":11416,"normalization":11417,"deposited":11418,"perfusion":11419,"Samples":11420,"##PO":11421,"rows":11422,"##published":11423,"Oxford":11424,"massive":11425,"Editor":11426,"formulated":11427,"Louis":11428,"##renal":11429,"chromatin":11430,"(2.":11431,"interrup":11432,"seek":11433,"##ylene":11434,"regulates":11435,"##ido":11436,"maturation":11437,"favorable":11438,"##circ":11439,"##′-":11440,"traces":11441,"##Supplementary":11442,"Kit":11443,"##otomy":11444,"ACKNOWLEDGMENT":11445,"validate":11446,"##gew":11447,"voice":11448,"##born":11449,"##adic":11450,"remod":11451,"perceptions":11452,"ment":11453,"fairly":11454,"swe":11455,"squares":11456,"##adequ":11457,"RC":11458,"Mann":11459,"CNS":11460,"atheroscl":11461,"epithelium":11462,"subunits":11463,"asymmetric":11464,"##–8":11465,"##5.0":11466,"drinking":11467,"hydrophobic":11468,"nanos":11469,"discover":11470,"##liche":11471,"aper":11472,"incorporate":11473,"##owski":11474,"came":11475,"dissip":11476,"Epidemi":11477,"##1−":11478,"##oped":11479,"tob":11480,"Wind":11481,"dissem":11482,"##(1):":11483,"Sample":11484,"##eds":11485,"searching":11486,"lept":11487,"##NG":11488,"##umar":11489,"##overty":11490,"(2011)":11491,"extends":11492,"hoc":11493,"##ceptor":11494,"dramatically":11495,"sought":11496,"solub":11497,"willing":11498,"equality":11499,"waters":11500,"BI":11501,"70%":11502,"##iable":11503,"parties":11504,"courses":11505,"analogous":11506,"violence":11507,"histological":11508,"Hal":11509,"Berg":11510,"##xn":11511,"##rophy":11512,"28,":11513,"##arti":11514,"##-100":11515,"answers":11516,"promoting":11517,"LO":11518,"103":11519,"##lemental":11520,"generalization":11521,"##istribution":11522,"##-14":11523,"##/1":11524,"Saf":11525,"introduces":11526,"magnet":11527,"Conversely":11528,"atmospheric":11529,"quadr":11530,"RB":11531,"HPV":11532,"dedicated":11533,"embedding":11534,"1994).":11535,"DD":11536,"astro":11537,"##umination":11538,"##onds":11539,"##NE":11540,"##posium":11541,"(1),":11542,"##vic":11543,"##apped":11544,"29.":11545,"##yll":11546,"Paper":11547,"[1],":11548,"Experiments":11549,"##199":11550,"moder":11551,"bic":11552,"##keleton":11553,"utilizing":11554,"(4.":11555,"Ki":11556,"logarith":11557,"eti":11558,"##embl":11559,"xn":11560,"##self":11561,"integrate":11562,"7:":11563,"100,":11564,"wish":11565,"##erosis":11566,"protease":11567,"anuscript":11568,"chromosomes":11569,"cores":11570,"##oplast":11571,"deficits":11572,"##En":11573,"##ppler":11574,"0.12":11575,"dynamical":11576,"##bec":11577,"publications":11578,"##ducts":11579,"participating":11580,"relate":11581,"descript":11582,"##chemical":11583,"hope":11584,"##atum":11585,"RV":11586,"##/(":11587,"##-1.":11588,"streams":11589,"MATERI":11590,"##2.0":11591,"sulfate":11592,"05":11593,"Lang":11594,"##airs":11595,"preceding":11596,"##two":11597,"##rectional":11598,"acknowledge":11599,"(2012)":11600,"potassium":11601,"##ells":11602,"##empl":11603,"dependency":11604,"##∗,":11605,"Models":11606,"declare":11607,"carriers":11608,"opposed":11609,"##aign":11610,"##Be":11611,"##left":11612,"##ogue":11613,"160":11614,"26,":11615,"leukemia":11616,"walls":11617,"stands":11618,"formulas":11619,"##ermat":11620,"Mater":11621,"Proced":11622,"slower":11623,"dealing":11624,"eliminated":11625,"##bach":11626,"tt":11627,"0.001":11628,"[19].":11629,"##generation":11630,"1.00":11631,"approval":11632,"tuning":11633,"played":11634,"##Res":11635,"Arabidopsis":11636,"investigating":11637,"enl":11638,"##cerol":11639,"strengthen":11640,"##discipl":11641,"3.2.":11642,"##plications":11643,"incorporation":11644,"intensities":11645,"bid":11646,"utilize":11647,"diffraction":11648,"##uclide":11649,"##aire":11650,"Orth":11651,"pas":11652,"1997":11653,"pressures":11654,"##plication":11655,"Chic":11656,"##okers":11657,"2.2.":11658,"sple":11659,"benign":11660,"uter":11661,"wire":11662,"[21]":11663,"arteries":11664,"LL":11665,"gets":11666,"##utable":11667,"ü":11668,"##bro":11669,"##aux":11670,"〉":11671,"Strateg":11672,"⎥":11673,"##cd":11674,"##icide":11675,"Christ":11676,"breeding":11677,"conjunction":11678,"##ICAL":11679,"##energy":11680,"Intellig":11681,"mention":11682,"##QL":11683,"Statistics":11684,"HPLC":11685,"##ocardi":11686,"##9-":11687,"trivial":11688,"robots":11689,"gli":11690,"hind":11691,"contour":11692,"##ops":11693,"Drosophila":11694,"2.6":11695,"crypt":11696,"##aks":11697,"Five":11698,"dans":11699,"patches":11700,"bill":11701,"invent":11702,"reform":11703,"colony":11704,"##acht":11705,"counting":11706,"##titude":11707,"fever":11708,"Adap":11709,"##oside":11710,"gained":11711,"erg":11712,"Women":11713,"##olism":11714,"##ece":11715,"Mer":11716,"##abase":11717,"Earth":11718,"Sweden":11719,"coal":11720,"(20)":11721,"dé":11722,"##HM":11723,"Activ":11724,"afford":11725,"##sky":11726,"psychiatric":11727,"Cour":11728,"pregnant":11729,"tobacco":11730,"Tan":11731,"compl":11732,"allocated":11733,"##kle":11734,"apoptotic":11735,"architectures":11736,"commitment":11737,"attenuation":11738,"##local":11739,"##9:":11740,"##uous":11741,"unus":11742,"##ERENCES":11743,"dust":11744,"1992;":11745,"soils":11746,"##ação":11747,"flight":11748,"##ochrome":11749,"##SR":11750,"surviv":11751,"Hb":11752,"Doc":11753,"letter":11754,"##phyl":11755,"2015).":11756,"emergence":11757,"Special":11758,"friends":11759,"Republic":11760,"##ographs":11761,"##odi":11762,"##ophageal":11763,"vibr":11764,"##1+":11765,"episodes":11766,"##ASE":11767,"Miller":11768,"floor":11769,"coil":11770,"##ario":11771,"##yte":11772,"observer":11773,"##ocor":11774,"colorectal":11775,"AJ":11776,"Initial":11777,"Ros":11778,"##pressive":11779,"##(·":11780,"convenient":11781,"isolate":11782,"##ér":11783,"interpolation":11784,"##ocarcin":11785,"(11":11786,"sort":11787,"specialized":11788,"disruption":11789,"lith":11790,"##arded":11791,"matches":11792,"Diabetes":11793,"##dl":11794,"##chi":11795,"employing":11796,"symp":11797,"##(0,":11798,"sav":11799,"27,":11800,"geographic":11801,"##weighted":11802,"##]).":11803,"##soft":11804,"cooperative":11805,"signalling":11806,"uncertainties":11807,"algebraic":11808,"##clinical":11809,"HL":11810,"Those":11811,"##HL":11812,"teams":11813,"inversion":11814,"organism":11815,"registered":11816,"XML":11817,"moments":11818,"facts":11819,"proximity":11820,"##MSE":11821,"##channel":11822,"Supporting":11823,"analytic":11824,"regulator":11825,"##aeh":11826,"plaus":11827,"distress":11828,"##0.1":11829,"25%":11830,"##Ne":11831,"Signal":11832,"Security":11833,"navigation":11834,"Meas":11835,"preserved":11836,"Poisson":11837,"4(":11838,"##________________":11839,"RM":11840,"##PI":11841,"1980":11842,"sul":11843,"conservative":11844,"##BER":11845,"##imp":11846,"##comput":11847,"tryp":11848,"DG":11849,"Mr":11850,"##nik":11851,"galaxies":11852,"Prob":11853,"##ductor":11854,"arrest":11855,"108":11856,"##ueh":11857,"##atial":11858,"##aratus":11859,"kann":11860,"Attribution":11861,"collective":11862,"dex":11863,"wheat":11864,"##-16":11865,"atrial":11866,"forced":11867,"##CTT":11868,"##ynchron":11869,"®":11870,"##CAM":11871,"NL":11872,"12-":11873,"##rences":11874,"TI":11875,"##ivers":11876,"Ku":11877,"pose":11878,"Carlo":11879,"counted":11880,"England":11881,"(30":11882,"viscos":11883,"extending":11884,"cros":11885,"powder":11886,"donors":11887,"##elles":11888,"Average":11889,"##ears":11890,"Policy":11891,"enabling":11892,"burst":11893,"##10)":11894,"##0,000":11895,"Functional":11896,"soph":11897,"##acin":11898,"Jones":11899,"##carb":11900,"Bios":11901,"damp":11902,"##shaped":11903,"deployment":11904,"personality":11905,"##Bi":11906,"license":11907,"biomarkers":11908,"computations":11909,"##leg":11910,"TABLE":11911,"oscillations":11912,"falls":11913,"enriched":11914,"colonies":11915,"Hom":11916,"felt":11917,"checking":11918,"##otyping":11919,"LDL":11920,"dich":11921,"distinguished":11922,"lipids":11923,"Conflic":11924,"undertaken":11925,"apart":11926,"SNP":11927,"neonatal":11928,"weakly":11929,"##cephal":11930,"(<":11931,"faults":11932,"deterior":11933,"Sus":11934,"Air":11935,"Bet":11936,"frozen":11937,"##umatic":11938,"Ax":11939,"Linear":11940,"[4,":11941,"Wood":11942,"##Con":11943,"##BN":11944,"##ischer":11945,"##reported":11946,"operated":11947,"##CF":11948,"##rotein":11949,"metastases":11950,"topological":11951,"##fa":11952,"hosts":11953,"Briefly":11954,"Nak":11955,"##aints":11956,"##AF":11957,"differentiate":11958,"drople":11959,"leaving":11960,"##ante":11961,"##ée":11962,"##icher":11963,"Serum":11964,"##site":11965,"##heumat":11966,"bridge":11967,"landscape":11968,"##dd":11969,"##iph":11970,"electrophoresis":11971,"##inen":11972,"unter":11973,"##optimal":11974,"microbi":11975,"apparently":11976,"[20].":11977,"##det":11978,"imposed":11979,"cutoff":11980,"##astern":11981,"coded":11982,"Cp":11983,"paid":11984,"##tica":11985,"##ophosph":11986,"prescribed":11987,"turned":11988,"##dig":11989,"proposal":11990,"assets":11991,"shifted":11992,"Pattern":11993,"##udden":11994,"ethnic":11995,"selectivity":11996,"dementia":11997,"##yi":11998,"silica":11999,"1999,":12000,"##tia":12001,"encoun":12002,"Without":12003,"##itting":12004,"##ologie":12005,"mission":12006,"##ois":12007,"moisture":12008,"Royal":12009,"Complex":12010,"##/200":12011,"Unters":12012,"##enosis":12013,"##utor":12014,"##0.4":12015,"Lie":12016,"##onz":12017,"##De":12018,"actu":12019,"vast":12020,"107":12021,"Les":12022,"inflation":12023,"incorrect":12024,"Respon":12025,"exploit":12026,"RD":12027,"pitch":12028,"##yses":12029,"31.":12030,"conscious":12031,"arthritis":12032,"##Bl":12033,"##umn":12034,"Theore":12035,"##iking":12036,"fails":12037,"Communication":12038,"Stat":12039,"##OU":12040,"##GM":12041,"##arrang":12042,"##idad":12043,"modular":12044,"Every":12045,"minimizing":12046,"sales":12047,"monot":12048,"malaria":12049,"pollution":12050,"(1999)":12051,"coherence":12052,"thous":12053,"ordinary":12054,"prevented":12055,"preoperative":12056,"excited":12057,"compartment":12058,"Pb":12059,"##zt":12060,"##amino":12061,"PW":12062,"elabor":12063,"##inge":12064,"outlined":12065,"born":12066,"pooled":12067,"grav":12068,"centrifuged":12069,"cartil":12070,"Scheme":12071,"coming":12072,"pour":12073,"passing":12074,"##App":12075,"2014.":12076,"youth":12077,"##rate":12078,"warr":12079,"60%":12080,"platforms":12081,"##Di":12082,"winter":12083,"##tree":12084,"sugar":12085,"Pear":12086,"HCC":12087,"##integr":12088,"##auc":12089,"ensemble":12090,"##prop":12091,"##sey":12092,"couns":12093,"##itations":12094,"corne":12095,"Proper":12096,"##earing":12097,"broader":12098,"##lung":12099,"Han":12100,"1999.":12101,"explains":12102,"##irty":12103,"Xi":12104,"##lity":12105,"linguistic":12106,"##umption":12107,"##600":12108,"194":12109,"amplitudes":12110,"stom":12111,"north":12112,"equals":12113,"##xk":12114,"Yam":12115,"##Figs":12116,"Identification":12117,"##acterial":12118,"cone":12119,"similarities":12120,"harvest":12121,"6.1":12122,"£":12123,"130":12124,"User":12125,"communicate":12126,"(“":12127,"Berlin":12128,"Box":12129,"planned":12130,"##QU":12131,"Phil":12132,"cytoplasm":12133,"congen":12134,"ensures":12135,"Asia":12136,"Requ":12137,"pin":12138,"##BB":12139,"##nl":12140,"bub":12141,"vox":12142,"##.2%":12143,"Chrom":12144,"rehabilitation":12145,"Ont":12146,"##400":12147,"worked":12148,"REFERENCES":12149,"defense":12150,"##ACE":12151,"Mas":12152,"##ureus":12153,"story":12154,"ago":12155,"Imaging":12156,"##rod":12157,"layout":12158,"##nings":12159,"reporter":12160,"Hil":12161,"##7%)":12162,"gaps":12163,"desc":12164,"unlike":12165,"legis":12166,"certainly":12167,"Bon":12168,"Repres":12169,"correlates":12170,"##SIS":12171,"embryo":12172,"6.5":12173,"Ray":12174,"extinc":12175,"hypoth":12176,"evolved":12177,"##ogr":12178,"Mont":12179,"Publishing":12180,"##hips":12181,"Function":12182,"establishment":12183,"##-30":12184,"mixtures":12185,"bundle":12186,"iod":12187,"##6%)":12188,"RL":12189,"1995":12190,"##uty":12191,"(1998)":12192,"##atid":12193,"fet":12194,"intense":12195,"lymphoma":12196,"03":12197,"rejection":12198,"ven":12199,"29,":12200,"rn":12201,"[22]":12202,"complication":12203,"##8%)":12204,"##utrition":12205,"stir":12206,"8:":12207,"MJ":12208,"##38/":12209,"mell":12210,"prohib":12211,"burn":12212,"##tructured":12213,"Technical":12214,"##block":12215,"Lind":12216,"##tier":12217,"XX":12218,"##heng":12219,"##ali":12220,"##.25":12221,"##icks":12222,"(>":12223,"##isy":12224,"##bits":12225,"inadequ":12226,"##rote":12227,"gravity":12228,"successive":12229,"needle":12230,"hippocampus":12231,"exer":12232,"##rowave":12233,"##tag":12234,"##(5)":12235,"##rst":12236,"##UP":12237,"##DG":12238,"1996":12239,"velocities":12240,"##.4,":12241,"happens":12242,"developments":12243,"subgroups":12244,"accumulated":12245,"##dam":12246,"switches":12247,"##iers":12248,"dopamine":12249,"##IX":12250,"subc":12251,"0.10":12252,"##',":12253,"transfection":12254,"transportation":12255,"reconstructed":12256,"perspectives":12257,"charges":12258,"slices":12259,"hydrolysis":12260,"##ilding":12261,"disturbances":12262,"Though":12263,"enhancing":12264,"##ilic":12265,"Cy":12266,"##ametric":12267,"intelligence":12268,"deform":12269,"eggs":12270,"Notice":12271,"interior":12272,"bearing":12273,"Cro":12274,"##gram":12275,"ease":12276,"Reference":12277,"offspring":12278,"##NOS":12279,"electromagnetic":12280,"##sa":12281,"(21)":12282,"Twent":12283,"implantation":12284,"##atr":12285,"4%":12286,"##ticed":12287,"performances":12288,"partitioning":12289,"##efficient":12290,"##ysiological":12291,"ay":12292,"Fem":12293,"Hor":12294,"##aphyl":12295,"Sons":12296,"##rey":12297,"JP":12298,"##vascular":12299,"tac":12300,"##kr":12301,"triggered":12302,"##/10.1016/":12303,"Economic":12304,"##artz":12305,"##arose":12306,"reservoir":12307,"iff":12308,"##quin":12309,"signi":12310,"brow":12311,"##:10.10":12312,"##uria":12313,"Taiwan":12314,"antagonist":12315,"wrong":12316,"7).":12317,"Board":12318,"sophistic":12319,"scientists":12320,"Currently":12321,"cities":12322,"integrating":12323,"occlusion":12324,"##CB":12325,"arrangement":12326,"register":12327,"Basic":12328,"carbohydr":12329,"Far":12330,"splitting":12331,"manifold":12332,"##ystic":12333,"##KO":12334,"enhances":12335,"determinants":12336,"##oor":12337,"remainder":12338,"[21].":12339,"##regation":12340,"scoring":12341,"enzymatic":12342,"##0.2":12343,"[2],":12344,"##Sp":12345,"EXP":12346,"Core":12347,"capillary":12348,"scri":12349,"Hen":12350,"transmitter":12351,"entered":12352,"flag":12353,"begins":12354,"fungal":12355,"attitude":12356,"attempted":12357,"kb":12358,"##/10":12359,"recordings":12360,"Inhib":12361,"priori":12362,"sectors":12363,"##effective":12364,"1998.":12365,"##ulent":12366,"##cht":12367,"irregular":12368,"girls":12369,"##oprecip":12370,"spine":12371,"##ugg":12372,"1998,":12373,"##zens":12374,"spectrometry":12375,"ocean":12376,"minute":12377,"##ACS":12378,"Recall":12379,"derivation":12380,"purification":12381,"##zel":12382,"rated":12383,"##breviations":12384,"##aldehyde":12385,"Inform":12386,"TV":12387,"1970":12388,"Frank":12389,"##Com":12390,"08":12391,"##azine":12392,"pick":12393,"einen":12394,"official":12395,"glutamate":12396,"##user":12397,"skill":12398,"##rection":12399,"##()":12400,"##oupled":12401,"viscosity":12402,"engagement":12403,"centrifugation":12404,"##Mc":12405,"Imple":12406,"Alz":12407,"##uni":12408,"102":12409,"Fax":12410,"##abin":12411,"exon":12412,"Lew":12413,"##uter":12414,"Chicago":12415,"predicts":12416,"Support":12417,"##icing":12418,"##cient":12419,"##idase":12420,"##irms":12421,"##:10.1371/":12422,"Alternatively":12423,"##odic":12424,"##polar":12425,"Spe":12426,"citi":12427,"##agulation":12428,"##kel":12429,"yr":12430,"bath":12431,"##uent":12432,"teeth":12433,"##Ni":12434,"##het":12435,"##osion":12436,"establishing":12437,"##disciplinary":12438,"##ximately":12439,"antennas":12440,"diagrams":12441,"##31.":12442,"SVM":12443,"Jo":12444,"##response":12445,"granul":12446,"reactivity":12447,"obviously":12448,"##uses":12449,"##∗)":12450,"stimulate":12451,"[5,":12452,"catalyst":12453,"##SL":12454,"antis":12455,"##.17":12456,"acknowled":12457,"##actors":12458,"computers":12459,"##ecal":12460,"stent":12461,"projections":12462,"##nam":12463,"Transactions":12464,"retrieved":12465,"fractional":12466,"diast":12467,"enrichment":12468,"unexpected":12469,"##ARY":12470,"##eper":12471,"##3+":12472,"northern":12473,"vesicles":12474,"Classification":12475,"Je":12476,"Examples":12477,"retin":12478,"##bc":12479,"[3],":12480,"Biological":12481,"strom":12482,"tes":12483,"##uler":12484,"committee":12485,"foods":12486,"nutrition":12487,"Hard":12488,"dc":12489,"##nit":12490,"ove":12491,"reflecting":12492,"Mag":12493,"##prot":12494,"##BE":12495,"∏":12496,"firing":12497,"Psychiatry":12498,"decoding":12499,"nasal":12500,"grass":12501,"libraries":12502,"##120":12503,"scar":12504,"ventilation":12505,"clinicians":12506,"remarkable":12507,"Gh":12508,"biofil":12509,"##ionic":12510,"##feed":12511,"notes":12512,"##*,":12513,"prevalent":12514,"QoS":12515,"Commission":12516,"##oC":12517,"##chied":12518,"Office":12519,"Terms":12520,"##CSF":12521,"Gly":12522,"news":12523,"##mode":12524,"##.20":12525,"Jr":12526,"south":12527,"##stit":12528,"##iao":12529,"suspected":12530,"##rystall":12531,"2016;":12532,"admitted":12533,"##ICS":12534,"##unch":12535,"##prin":12536,"TD":12537,"peri":12538,"grants":12539,"Tokyo":12540,"##ducible":12541,"envelope":12542,"yi":12543,"##estr":12544,"Publis":12545,"##uns":12546,"posts":12547,"31,":12548,"anesthesia":12549,"Hem":12550,"Doppler":12551,"##nan":12552,"attend":12553,"artifacts":12554,"##.1%":12555,"8)":12556,"##GD":12557,"OD":12558,"sends":12559,"##worth":12560,"steel":12561,"##ausal":12562,"##luid":12563,"NJ":12564,"##sies":12565,"waiting":12566,"##functional":12567,"##ococ":12568,"Pf":12569,"seasonal":12570,"independence":12571,"##meas":12572,"##dB":12573,"##cellular":12574,"##-19":12575,"Please":12576,"##unic":12577,"skew":12578,"dynamically":12579,"hemisp":12580,"„":12581,"1991;":12582,"shr":12583,"Sand":12584,"##Vs":12585,"differently":12586,"proposes":12587,"motivated":12588,"##ayers":12589,"moral":12590,"aberr":12591,"achieves":12592,"Hydro":12593,"synth":12594,"southern":12595,"Rh":12596,"##etts":12597,"Depend":12598,"[4],":12599,"spp":12600,"2;":12601,"##KA":12602,"##tium":12603,"abilities":12604,"broadcast":12605,"##under":12606,"IA":12607,"##plasia":12608,"dieser":12609,"PLoS":12610,"biosynthesis":12611,"careful":12612,"##she":12613,"##/4":12614,"##RR":12615,"VP":12616,"strip":12617,"gangl":12618,"##uclidean":12619,"##ese":12620,"housing":12621,"speaker":12622,"aneur":12623,"⎢":12624,"injections":12625,"anatomical":12626,"trim":12627,"connecting":12628,"##igan":12629,"Cas":12630,"##amycin":12631,"##Gl":12632,"bif":12633,"mas":12634,"prevents":12635,"advice":12636,"recommendation":12637,"Rod":12638,"exclude":12639,"revision":12640,"crack":12641,"engage":12642,"##tism":12643,"resting":12644,"glycos":12645,"Chi":12646,"109":12647,"##ultural":12648,"0.99":12649,"spleen":12650,"Day":12651,"retain":12652,"Architect":12653,"neighbour":12654,"##(2):":12655,"##tage":12656,"Source":12657,"Dynamic":12658,"polynomials":12659,"##alli":12660,"Ter":12661,"GF":12662,"##ucifer":12663,"verbal":12664,"##idents":12665,"##ORT":12666,"##olean":12667,"drawback":12668,"visualized":12669,"(2013)":12670,"drift":12671,"differentially":12672,"##ía":12673,"subsystem":12674,"##ilation":12675,"communic":12676,"##rile":12677,"##itzerland":12678,"##membrane":12679,"suffer":12680,"accomplished":12681,"Ra":12682,"tags":12683,"##ethel":12684,"##oston":12685,"hippocampal":12686,"##GI":12687,"##uh":12688,"##izable":12689,"##idium":12690,"Changes":12691,"preparations":12692,"You":12693,"##edge":12694,"CSF":12695,"PN":12696,"website":12697,"concomit":12698,"(13":12699,"acetyl":12700,"Twenty":12701,"gh":12702,"Hum":12703,"##orest":12704,"stabilization":12705,"endometri":12706,"37°":12707,"1993).":12708,"##eto":12709,"genomes":12710,"updates":12711,"GE":12712,"marri":12713,"Subjects":12714,"##tir":12715,"##ensin":12716,"verb":12717,"miRNA":12718,"grouped":12719,"wage":12720,"acquire":12721,"supplementation":12722,"##Pa":12723,"gall":12724,"inactivation":12725,"polymers":12726,"##=0.0":12727,"##ascul":12728,"2015,":12729,"cardiomy":12730,"Lev":12731,"[23]":12732,"conduction":12733,"RI":12734,"bypass":12735,"glomer":12736,"aureus":12737,"##apol":12738,"underes":12739,"tone":12740,"##nia":12741,"##enic":12742,"homeostasis":12743,"agonist":12744,"medic":12745,"routes":12746,"##ocytic":12747,"##ATIONS":12748,"sudden":12749,"attain":12750,"mounted":12751,"thre":12752,"gradients":12753,"kinem":12754,"Australian":12755,"editor":12756,"crude":12757,"7-":12758,"##én":12759,"batch":12760,"spir":12761,"##etheless":12762,"pg":12763,"##.18":12764,"wit":12765,"implementations":12766,"emotions":12767,"Target":12768,"chemicals":12769,"transactions":12770,"Texas":12771,"Modeling":12772,"##orus":12773,"punc":12774,"rup":12775,"pt":12776,"radiotherapy":12777,"##.4%":12778,"cyst":12779,"Dies":12780,"poverty":12781,"agreed":12782,"Wilson":12783,"relating":12784,"phenotypic":12785,"practitioners":12786,"dass":12787,"##quality":12788,"rings":12789,"bowel":12790,"##rc":12791,"supplied":12792,"Growth":12793,"Hamiltonian":12794,"##human":12795,"PCA":12796,"##alam":12797,"dendritic":12798,"##coming":12799,"ventral":12800,"##aft":12801,"##bone":12802,"Sin":12803,"weather":12804,"aneurys":12805,"subspace":12806,"##PM":12807,"Higher":12808,"[5],":12809,"tumours":12810,"##1,2":12811,"Pseud":12812,"##agent":12813,"positioning":12814,"##igene":12815,"##KL":12816,"hypers":12817,"designated":12818,"addressing":12819,"##alt":12820,"homolog":12821,"apparatus":12822,"regimen":12823,"##pc":12824,"investigators":12825,"WHO":12826,"MH":12827,"##index":12828,"Measurement":12829,"##(6)":12830,"stresses":12831,"##ysacchar":12832,"voc":12833,"systolic":12834,"##Ins":12835,"industries":12836,"classify":12837,"systematically":12838,"satisfactory":12839,"##endicular":12840,"##depend":12841,"Large":12842,"polymorphisms":12843,"##stant":12844,"∨":12845,"Biomed":12846,"Auf":12847,"distant":12848,"opi":12849,"scored":12850,"Electronic":12851,"##Pub":12852,"##hyper":12853,"reversed":12854,"labour":12855,"##iments":12856,"##eless":12857,"##ORK":12858,"actively":12859,"tour":12860,"Kh":12861,"finds":12862,"inducing":12863,"24-":12864,"extensions":12865,"##Ald":12866,"strand":12867,"rearrang":12868,"##kn":12869,"Object":12870,"HER":12871,"Hill":12872,"(22)":12873,"kHz":12874,"##trum":12875,"shortest":12876,"##uccess":12877,"agar":12878,"recipients":12879,"##ubes":12880,"[22].":12881,"stores":12882,"authentication":12883,"##ulators":12884,"##ukin":12885,"Fi":12886,"##(3":12887,"histone":12888,"shel":12889,"##tracted":12890,"observational":12891,"graphene":12892,"projected":12893,"Anderson":12894,"RH":12895,"modest":12896,"##ompati":12897,"Kl":12898,"continuum":12899,"TL":12900,"Abs":12901,"inferred":12902,"##heit":12903,"Paris":12904,"lamin":12905,"illumination":12906,"magne":12907,"wir":12908,"′′":12909,"##Figures":12910,"depressive":12911,"##idade":12912,"clone":12913,"dehydrogen":12914,"##OLOGY":12915,"⇒":12916,"Ru":12917,"##organic":12918,"##ria":12919,"reagent":12920,"ERK":12921,"Cox":12922,"##inin":12923,"##Inv":12924,"debate":12925,"pieces":12926,"immobil":12927,"inspection":12928,"lobe":12929,"Ø":12930,"TX":12931,"Biochem":12932,"realize":12933,"cartilage":12934,"##teness":12935,"wurden":12936,"(3.":12937,"ester":12938,"Last":12939,"##Cr":12940,"##0.3":12941,"Diseases":12942,"##conjug":12943,"[6,":12944,"##ellec":12945,"(195":12946,"femoral":12947,"Que":12948,"Symposium":12949,"convers":12950,"2.7":12951,"radar":12952,"translocation":12953,"FM":12954,"##aments":12955,"##acryl":12956,"infrared":12957,"Corporation":12958,"BB":12959,"refinement":12960,"statistic":12961,"congestion":12962,"Nucle":12963,"simulator":12964,"weaker":12965,"EN":12966,"Rout":12967,"##doc":12968,"af":12969,"##py":12970,"##ensors":12971,"Alzheimer":12972,"##aver":12973,"renew":12974,"##apses":12975,"cloned":12976,"Up":12977,"Switzerland":12978,"##SF":12979,"narr":12980,"comment":12981,"cann":12982,"Advanced":12983,"##operatively":12984,"annotation":12985,"Values":12986,"replacing":12987,"huge":12988,"(25":12989,"attract":12990,"##brain":12991,"##rocytes":12992,"##df":12993,"adjusting":12994,"##CV":12995,"weakness":12996,"ath":12997,"##enger":12998,"Emerg":12999,"piece":13000,"##urally":13001,"cascade":13002,"7.3":13003,"##clusion":13004,"aggregates":13005,"sheet":13006,"turnover":13007,"peers":13008,"##repres":13009,"Span":13010,"centered":13011,"ry":13012,"##okes":13013,"reflex":13014,"termination":13015,"Fall":13016,"chron":13017,"##TI":13018,"OA":13019,"pairwise":13020,"CAD":13021,"##anda":13022,"primitive":13023,"nothing":13024,"##anic":13025,"Subsequently":13026,"##valued":13027,"nutritional":13028,"homology":13029,"LH":13030,"tap":13031,"##cells":13032,"averaging":13033,"##parts":13034,"Color":13035,"generations":13036,"##list":13037,"##ymmetric":13038,"##ITY":13039,"cytometry":13040,"Otherwise":13041,"(14":13042,"Genetics":13043,"{0,":13044,"6.3":13045,"conference":13046,"dent":13047,"Jacob":13048,"ui":13049,"esc":13050,"##ðt":13051,"##adap":13052,"##atinine":13053,"##ront":13054,"parametric":13055,"expertise":13056,"##ieht":13057,"discusses":13058,"heavily":13059,"axi":13060,"##kh":13061,"penetration":13062,"nation":13063,"##bel":13064,"TN":13065,"##emporary":13066,"erent":13067,"actors":13068,"thanks":13069,"Biom":13070,"eosin":13071,"tetr":13072,"##invasive":13073,"microscopic":13074,"¬":13075,"[6],":13076,"zum":13077,"(2),":13078,"coex":13079,"##ichia":13080,"##umer":13081,"##ropriate":13082,"mellitus":13083,"##ocrin":13084,"::":13085,"Federal":13086,"##prec":13087,"##dim":13088,"##oden":13089,"prescri":13090,"##Im":13091,"##”)":13092,"IH":13093,"5.0":13094,"##otics":13095,"oblig":13096,"EGFR":13097,"sept":13098,"vibration":13099,"2.8":13100,"Administration":13101,"Mes":13102,"perceptual":13103,"lipoprotein":13104,"panels":13105,"##ogle":13106,"##.19":13107,"herb":13108,"3),":13109,"cha":13110,"river":13111,"college":13112,"##oche":13113,"gon":13114,"##5:":13115,"eating":13116,"Pediatric":13117,"##+(":13118,"##ums":13119,"Question":13120,"abstraction":13121,"04":13122,"rotor":13123,"norms":13124,"##ady":13125,"(2,":13126,"physically":13127,"lapa":13128,"payment":13129,"##EX":13130,"avoided":13131,"15%":13132,"translated":13133,"Database":13134,"##roy":13135,"Tod":13136,"##uls":13137,"transduction":13138,"##iciency":13139,"Assuming":13140,"##ensen":13141,"##New":13142,"##orge":13143,"Raman":13144,"##nen":13145,"attenuated":13146,"electricity":13147,"KL":13148,"##Ge":13149,"isoforms":13150,"coated":13151,"shares":13152,"subd":13153,"(1997)":13154,"pull":13155,"Business":13156,"immigr":13157,"##deg":13158,"elementary":13159,"Neural":13160,"shed":13161,"helped":13162,"Continu":13163,"Medic":13164,"resolve":13165,"«":13166,"##ophilic":13167,"1997,":13168,"##ircraft":13169,"strept":13170,"ionic":13171,"##arcoma":13172,"##Pl":13173,"193":13174,"tooth":13175,"arms":13176,"##orer":13177,"##];":13178,"Fram":13179,"spatially":13180,"ACT":13181,"personnel":13182,"Tiss":13183,"##Gen":13184,"##phosphate":13185,"##oic":13186,"Patienten":13187,"pharmacological":13188,"2015.":13189,"##1.4":13190,"carotid":13191,"##TER":13192,"Thor":13193,"Flor":13194,"##ankton":13195,"##ORM":13196,"##omeric":13197,"Jos":13198,"(2).":13199,"Laboratories":13200,"sucrose":13201,"##density":13202,"##berts":13203,"geographical":13204,"Free":13205,"Iran":13206,"histogram":13207,"persistence":13208,"##acerb":13209,"Enter":13210,"DV":13211,"##ersonal":13212,"prophyl":13213,"approximated":13214,"asymmetry":13215,"Importantly":13216,"GPS":13217,"mediate":13218,"NPs":13219,"Government":13220,"##chain":13221,"gels":13222,"MATERIALS":13223,"iner":13224,"importantly":13225,"##ARCH":13226,"1.9":13227,"encaps":13228,"holding":13229,"BT":13230,"##ban":13231,"saturated":13232,"lu":13233,"sett":13234,"##igare":13235,"##arity":13236,"cytotoxic":13237,"##ellectual":13238,"questionnaires":13239,"fill":13240,"##tase":13241,"letters":13242,"presumably":13243,"Arg":13244,"##were":13245,")2":13246,"Error":13247,"##cession":13248,"##alpha":13249,"merely":13250,"taxa":13251,"capacitance":13252,"Differences":13253,"CAR":13254,"converges":13255,"[24]":13256,"wealth":13257,"Marc":13258,"orbital":13259,"proportions":13260,"Orig":13261,"digestion":13262,"##isco":13263,"Immunol":13264,"conducting":13265,"[(":13266,"##ocr":13267,"32.":13268,"slice":13269,"##aya":13270,"##OA":13271,"miRNAs":13272,"semicon":13273,"Relations":13274,"##inase":13275,"[23].":13276,"Bol":13277,"reciproc":13278,"ulcer":13279,"##3.0":13280,"fu":13281,"fits":13282,"1990;":13283,"xx":13284,"breakdown":13285,"sho":13286,"apical":13287,"Annual":13288,"ned":13289,"advoc":13290,"Ye":13291,"Sex":13292,"Common":13293,"##inine":13294,"reagents":13295,"Nag":13296,"deployed":13297,"##geal":13298,"LN":13299,"##yzed":13300,"##dL":13301,"Plus":13302,"Innov":13303,"crisis":13304,"indirectly":13305,"##Aldrich":13306,"##mill":13307,"gross":13308,"agencies":13309,"Various":13310,"##km":13311,"suggestions":13312,"3.6":13313,"mos":13314,"worker":13315,"proxy":13316,"1997.":13317,"[7],":13318,"campaign":13319,"graphical":13320,"definite":13321,"Generally":13322,"##pyr":13323,"mA":13324,"##review":13325,"comprising":13326,"Southern":13327,"sophisticated":13328,"##8:":13329,"corner":13330,"##zz":13331,"Tom":13332,"dissociation":13333,"##~~":13334,"##icillin":13335,"Community":13336,"##Ts":13337,"wavegu":13338,"##coprotein":13339,"passage":13340,"Taken":13341,"office":13342,"fabricated":13343,"##lastic":13344,"7)":13345,"Ai":13346,"supplementary":13347,"##jo":13348,"9:":13349,"modulus":13350,"Myc":13351,"##··":13352,"##TOR":13353,"lives":13354,"military":13355,"##pired":13356,"brom":13357,"ablation":13358,"hepar":13359,"Distribution":13360,"FS":13361,"leadership":13362,"screened":13363,"##9%)":13364,"##ailing":13365,"modulated":13366,"touch":13367,"1⁄2":13368,"LI":13369,"##athetic":13370,"James":13371,"anthrop":13372,"30-":13373,"favour":13374,"##toral":13375,"nanoc":13376,"Taking":13377,"circles":13378,"Oct":13379,"cast":13380,"absorbance":13381,"(23)":13382,"intest":13383,"spacing":13384,"Liter":13385,"crow":13386,"##triv":13387,"gle":13388,"##aware":13389,"friction":13390,"##ranial":13391,"pigs":13392,"Autom":13393,"Ec":13394,"parasite":13395,"##LV":13396,"cognition":13397,"hydr":13398,"EDTA":13399,"##−1.":13400,"Electrical":13401,"closest":13402,"jed":13403,"##ciences":13404,"beads":13405,"comprises":13406,"##(1),":13407,"tended":13408,"spike":13409,"phosphatase":13410,"##arts":13411,"##strand":13412,"Gro":13413,"getting":13414,"developers":13415,"bile":13416,"Ele":13417,"##compass":13418,"##20,":13419,"Electro":13420,"vulnerable":13421,"Richard":13422,"kinases":13423,"Academic":13424,"relational":13425,"+1":13426,"hypertroph":13427,"marketing":13428,"##pf":13429,"BE":13430,"tib":13431,"##alc":13432,"Cs":13433,"##ming":13434,"##ontrol":13435,"multiplication":13436,"funds":13437,"contextual":13438,"LB":13439,"##veolar":13440,"subtypes":13441,"transduc":13442,"##untary":13443,"Boston":13444,"Synthesis":13445,"##imb":13446,"Lat":13447,"Consistent":13448,"sustainable":13449,"outbre":13450,"06":13451,"osm":13452,"mt":13453,"incorporating":13454,"##pur":13455,"{(":13456,"bran":13457,"##uciferase":13458,"6.4":13459,"fragmentation":13460,"##rid":13461,"learners":13462,"plasticity":13463,"##zone":13464,"Bell":13465,"Stein":13466,"connect":13467,"##urbed":13468,"workflow":13469,"weighting":13470,"owing":13471,"coarse":13472,"termed":13473,"##hai":13474,"##hu":13475,"##nex":13476,"3%":13477,"rub":13478,"DMSO":13479,"Sen":13480,"perpendicular":13481,"GABA":13482,"##HF":13483,"Space":13484,"highlights":13485,"glycol":13486,"spor":13487,"0.001).":13488,"purely":13489,"arith":13490,"GI":13491,"##GO":13492,"holes":13493,"mobil":13494,"##ietic":13495,"Zhou":13496,"keys":13497,"estrogen":13498,"hands":13499,"##ventive":13500,"advers":13501,"##ité":13502,"ethn":13503,"Between":13504,"eligible":13505,"yielding":13506,"sow":13507,"compares":13508,"VII":13509,"savings":13510,"##ailability":13511,"formulations":13512,"infiltration":13513,"inhibiting":13514,"patent":13515,"##cost":13516,"simpler":13517,"Robert":13518,"##run":13519,"##ahn":13520,"##bras":13521,"##luent":13522,"microorgan":13523,"soc":13524,"ect":13525,"curric":13526,"trying":13527,"##ulmonary":13528,"lineage":13529,"##wi":13530,"analges":13531,"nest":13532,"encompass":13533,"vill":13534,"Joh":13535,"Kong":13536,"incremental":13537,"extinction":13538,"##ilst":13539,"filtration":13540,"Find":13541,"Clark":13542,"Short":13543,"synthase":13544,"##+/":13545,"eg":13546,"Contr":13547,"cot":13548,"managing":13549,"Euclidean":13550,"##ijing":13551,"##Based":13552,"Gastro":13553,"classic":13554,"stain":13555,"exacerb":13556,"achievement":13557,"agency":13558,"volunteers":13559,"splic":13560,"seemed":13561,"saliv":13562,"##athione":13563,"permitted":13564,"##rad":13565,"##square":13566,"organis":13567,"descriptive":13568,"Computational":13569,"exchang":13570,"1992).":13571,"subcutaneous":13572,"drivers":13573,"##beta":13574,"Grad":13575,"Ultr":13576,"Bac":13577,"seeking":13578,"severely":13579,"##adjusted":13580,"immer":13581,"##adata":13582,"Light":13583,"##onc":13584,"##fund":13585,"Mary":13586,"Expl":13587,"75%":13588,"0.1%":13589,"SAR":13590,"uncom":13591,"##aryngeal":13592,"microarray":13593,"dimer":13594,"autoimmune":13595,"##acles":13596,"Occ":13597,"Collabor":13598,"Bul":13599,"Jack":13600,"##ubation":13601,"mucosa":13602,"tried":13603,"aber":13604,"Task":13605,"identifies":13606,"(~":13607,"NIH":13608,"wavelengths":13609,"##.22":13610,"##meth":13611,"stenosis":13612,"##perfusion":13613,"##4.0":13614,"PER":13615,"discrepancy":13616,"##Cu":13617,"pathogenic":13618,"OT":13619,"##ukary":13620,"##Xi":13621,"##borne":13622,"intermedi":13623,"##iop":13624,"##WA":13625,"##agonal":13626,"[7,":13627,"cutting":13628,"##6.0":13629,"IU":13630,"##ball":13631,"Mobile":13632,"##ston":13633,"says":13634,"##inely":13635,"associate":13636,"##odon":13637,"View":13638,"realization":13639,"Address":13640,"##FF":13641,"biased":13642,"bonding":13643,"##affected":13644,"##0.8":13645,"AE":13646,"strengths":13647,"plausible":13648,"##igned":13649,"broken":13650,"angiogenesis":13651,"unemploy":13652,"electroly":13653,"##enth":13654,"steroid":13655,"##lycer":13656,"converge":13657,"multil":13658,"Hay":13659,"classroom":13660,"continuity":13661,"mood":13662,"##aser":13663,"̈":13664,"(1996)":13665,"Regarding":13666,"##herichia":13667,"ECG":13668,"GST":13669,"cylind":13670,"Biotechnology":13671,"anomalies":13672,"occasion":13673,"unusual":13674,"Related":13675,"plain":13676,"suit":13677,"EB":13678,"Canadian":13679,"350":13680,"##ocket":13681,"fun":13682,"rg":13683,"[24].":13684,"(2014)":13685,"Ent":13686,"spots":13687,"##lecules":13688,"##vector":13689,"effector":13690,"##utter":13691,"Kingdom":13692,"Sie":13693,"0.06":13694,"##oderm":13695,"jet":13696,"COPD":13697,"happen":13698,"##osol":13699,"##efined":13700,"dramatic":13701,"exceeds":13702,"enterprise":13703,"##ocarcinoma":13704,"##trivial":13705,"pu":13706,"07":13707,"cite":13708,"determinant":13709,"Plan":13710,"instantaneous":13711,"2016,":13712,"inconsistent":13713,"##ohl":13714,"##bas":13715,"Response":13716,"##CAG":13717,"ré":13718,"##environment":13719,"Union":13720,"Gib":13721,"##necess":13722,"##acetyl":13723,"Mathematics":13724,"##hou":13725,"##'-":13726,"Secondly":13727,"##uscular":13728,"Pacific":13729,"##2.5":13730,"##aran":13731,"signatures":13732,"increment":13733,"##ods":13734,"##fin":13735,"minimization":13736,"Workshop":13737,"##putation":13738,"##viously":13739,"VM":13740,"##rontal":13741,"slides":13742,"##inescence":13743,"Ethics":13744,"##loud":13745,"symptomatic":13746,"##13,":13747,"##15,":13748,"##5.00":13749,"Whereas":13750,"MK":13751,"##/10.10":13752,")]":13753,"##ospor":13754,"##hea":13755,"selectively":13756,"##Invitrogen":13757,"raise":13758,"saw":13759,"afore":13760,"percentages":13761,"■":13762,"[8],":13763,"sterile":13764,"Cri":13765,"[25]":13766,"oligonucle":13767,"idi":13768,"tropical":13769,"philosoph":13770,"autonomous":13771,"115":13772,"Oral":13773,"Rap":13774,"noisy":13775,"totally":13776,"##ivalent":13777,"SG":13778,"##–20":13779,"Att":13780,"install":13781,"noch":13782,"mu":13783,"relapse":13784,"silver":13785,"categorized":13786,"##OV":13787,"pet":13788,"Men":13789,"pharmaceutical":13790,"joints":13791,"##role":13792,"somatic":13793,"deficit":13794,"##car":13795,"(18":13796,"pole":13797,"cue":13798,"Wa":13799,"Ps":13800,"inadequate":13801,"Stan":13802,"##this":13803,"generators":13804,"##uning":13805,"FF":13806,"##ensation":13807,"(-":13808,"Prevention":13809,"##acting":13810,"clarify":13811,"##otstr":13812,"classifiers":13813,"annealing":13814,"##versi":13815,"##opoietic":13816,"mammals":13817,"Fast":13818,"monthly":13819,"intelligent":13820,"fabrication":13821,"##itions":13822,"##sover":13823,"formally":13824,"Fo":13825,"##offs":13826,"##dc":13827,"....":13828,"inactive":13829,"(24)":13830,"##At":13831,"##iser":13832,"++":13833,"1996.":13834,"reversible":13835,"LF":13836,"encryption":13837,"dosage":13838,"##mn":13839,"Wal":13840,"depri":13841,"df":13842,"##aterials":13843,"avoidance":13844,"Search":13845,"perc":13846,"##−→":13847,"Jun":13848,"##oxygen":13849,"##jp":13850,"corrections":13851,"Harr":13852,"fungi":13853,"##Net":13854,"conjugate":13855,"GDP":13856,"mini":13857,"##bean":13858,"##Ig":13859,"##01.":13860,"0.14":13861,"diction":13862,"modulate":13863,"(2008).":13864,"##cine":13865,"##eras":13866,"Nur":13867,"Institution":13868,"explanations":13869,"1996,":13870,"##period":13871,"##yd":13872,"##Qu":13873,"##PAGE":13874,"0.13":13875,"voltages":13876,"##itoring":13877,"mirror":13878,"constructing":13879,"diets":13880,"humidity":13881,"##sl":13882,"perce":13883,"email":13884,"artic":13885,"toxin":13886,"HDL":13887,"##1|":13888,"schema":13889,"triangle":13890,"Specific":13891,"tab":13892,"##balance":13893,"accessed":13894,"##variant":13895,"Pharm":13896,"restoration":13897,"FC":13898,"emphasize":13899,"bab":13900,"quark":13901,"Ant":13902,"qui":13903,"Genet":13904,"conditioning":13905,"##gest":13906,"diese":13907,"Cat":13908,"##cam":13909,"speaking":13910,"##ugin":13911,"##atern":13912,"##auses":13913,"remodeling":13914,"##IGN":13915,"summarizes":13916,"pent":13917,"scaled":13918,"##iance":13919,"dehydrogenase":13920,"##urate":13921,"planes":13922,"##PK":13923,"##luence":13924,"Tumor":13925,"Zhao":13926,"Communications":13927,"##rt":13928,"autophagy":13929,"Upon":13930,"33.":13931,"guarantees":13932,"Lake":13933,"##total":13934,"[8,":13935,"700":13936,"2.3.":13937,"Environ":13938,"exit":13939,"##paration":13940,"polyg":13941,"microtub":13942,"Plasma":13943,"lungs":13944,"Lam":13945,"xen":13946,"09":13947,"##rex":13948,"(2007).":13949,"innovative":13950,"##21/":13951,"##ACT":13952,"Escherichia":13953,"wear":13954,"critically":13955,"##xj":13956,"weekly":13957,"[40":13958,"Family":13959,"cytotoxicity":13960,"##ynaptic":13961,"Gy":13962,"(1.":13963,"##wing":13964,"summarize":13965,"brown":13966,"##abolic":13967,"inequalities":13968,"Activity":13969,"redox":13970,"Cohen":13971,"##drug":13972,"Associ":13973,"conductance":13974,"runtime":13975,"##ocon":13976,"accelerated":13977,"aircraft":13978,"Significant":13979,"resonant":13980,"##phenyl":13981,"People":13982,"citation":13983,"##!.":13984,"Prec":13985,"Ok":13986,"##Sc":13987,"chond":13988,"Culture":13989,"unrelated":13990,"problematic":13991,"(2006).":13992,"horizon":13993,"Los":13994,"Phosph":13995,"##0.9":13996,"mouth":13997,"Run":13998,"Economics":13999,"mono":14000,"aforementioned":14001,"unrestricted":14002,"Ext":14003,"farmers":14004,"dens":14005,"##tilled":14006,"##mM":14007,"nitr":14008,"aromatic":14009,"##lt":14010,"Quantitative":14011,"echocardi":14012,"##cel":14013,"##assemb":14014,"multiplex":14015,"avoiding":14016,"facilitates":14017,"ls":14018,"phospholip":14019,"backward":14020,"alumin":14021,"astroc":14022,"eigenvalue":14023,"##21,":14024,"##irrh":14025,"##RC":14026,"nutrients":14027,"##14,":14028,"̧":14029,"Library":14030,"##7.0":14031,"modalities":14032,"transparent":14033,"export":14034,"neutrophils":14035,"ket":14036,"premature":14037,"Nic":14038,"asset":14039,"##standard":14040,"##–11":14041,"knockdown":14042,"##–15":14043,"obstruction":14044,"Likewise":14045,"Change":14046,"observable":14047,"Fox":14048,"Pd":14049,"civil":14050,"##4(":14051,"adipose":14052,"freely":14053,"(2009).":14054,"bat":14055,"0.001)":14056,"Prin":14057,"Wall":14058,
[...]
